<unk>	0
<s>	0
</s>	0
20	-0
19	-1
一个	-2
▁这	-3
幽默	-4
一种	-5
201	-6
通过	-7
200	-8
),	-9
这里	-10
句话	-11
中国	-12
00	-13
可以	-14
▁这里	-15
表达	-16
没有	-17
自己	-18
因为	-19
的是	-20
中的	-21
意思	-22
所以	-23
的人	-24
可能	-25
使用	-26
▁这句话	-27
不是	-28
▁“	-29
10	-30
这个	-31
美国	-32
进行	-33
因此	-34
18	-35
”,	-36
是指	-37
er	-38
公里	-39
讽刺	-40
位于	-41
方式	-42
世界	-43
指的是	-44
12	-45
an	-46
日本	-47
人的	-48
)。	-49
in	-50
人口	-51
。19	-52
成为	-53
大学	-54
公司	-55
行为	-56
就是	-57
用了	-58
成了	-59
上的	-60
他们	-61
实际	-62
同时	-63
暗示	-64
时间	-65
开始	-66
通常	-67
第一	-68
or	-69
11	-70
on	-71
效果	-72
认为	-73
平方	-74
调侃	-75
国家	-76
这种	-77
表示	-78
夸张	-79
工作	-80
政府	-81
以及	-82
是一种	-83
部分	-84
15	-85
游戏	-86
是一	-87
的一	-88
▁19	-89
是一个	-90
台湾	-91
地区	-92
香港	-93
的一个	-94
其中	-95
平方公里	-96
▁在	-97
他的	-98
幽默的	-99
由于	-100
主要	-101
()	-102
第二	-103
双关	-104
作为	-105
研究	-106
但是	-107
文化	-108
ar	-109
之后	-110
小明	-111
人民	-112
17	-113
16	-114
谐音	-115
问题	-116
表达了	-117
的意思	-118
什么	-119
包括	-120
制造	-121
代表	-122
学生	-123
面积	-124
不同	-125
en	-126
这一	-127
获得	-128
社会	-129
历史	-130
为了	-131
▁201	-132
起来	-133
理解	-134
”。	-135
生活	-136
已经	-137
la	-138
其他	-139
形成	-140
发现	-141
两个	-142
电影	-143
存在	-144
是在	-145
▁这里的	-146
之间	-147
需要	-148
▁我	-149
199	-150
实际上	-151
不会	-152
委员	-153
关系	-154
属于	-155
14	-156
结合	-157
出现	-158
产生	-159
的情	-160
称为	-161
导致	-162
30	-163
到了	-164
影响	-165
50	-166
。”	-167
之一	-168
无法	-169
网络	-170
政治	-171
当时	-172
中心	-173
形容	-174
系统	-175
运动	-176
电视	-177
是对	-178
了一	-179
所有	-180
都是	-181
国际	-182
al	-183
发生	-184
13	-185
这些	-186
死亡	-187
自己的	-188
st	-189
也是	-190
描述	-191
..	-192
英国	-193
at	-194
学校	-195
发展	-196
法国	-197
结果	-198
来的	-199
表现	-200
▁S	-201
不能	-202
而不是	-203
)、	-204
这句话	-205
设计	-206
意味	-207
ic	-208
中华	-209
成立	-210
科学	-211
个人	-212
如果	-213
语言	-214
成功	-215
一些	-216
意思是	-217
最后	-218
担任	-219
作品	-220
年的	-221
手法	-222
le	-223
音乐	-224
,“	-225
事件	-226
主义	-227
用来	-228
提供	-229
参加	-230
的方式	-231
活动	-232
比喻	-233
▁C	-234
地球	-235
时候	-236
人类	-237
老师	-238
字面	-239
重要	-240
25	-241
一般	-242
21	-243
」,	-244
大的	-245
负责	-246
角色	-247
(),	-248
方面	-249
对比	-250
孩子	-251
教育	-252
逻辑	-253
中央	-254
联系	-255
000	-256
内容	-257
管理	-258
现代	-259
组织	-260
虽然	-261
学院	-262
进入	-263
最终	-264
的幽默	-265
根据	-266
现实	-267
建筑	-268
▁200	-269
re	-270
共和	-271
he	-272
名字	-273
太阳	-274
利用	-275
植物	-276
只有	-277
人们	-278
:“	-279
一起	-280
服务	-281
》,	-282
地方	-283
世纪	-284
198	-285
人物	-286
能力	-287
概念	-288
名为	-289
铁路	-290
正式	-291
ou	-292
东西	-293
现在	-294
直接	-295
许多	-296
故事	-297
▁《	-298
经济	-299
am	-300
的事	-301
for	-302
it	-303
本意	-304
委员会	-305
期间	-306
要求	-307
用于	-308
非常	-309
带有	-310
24	-311
计划	-312
现象	-313
时期	-314
市镇	-315
形成了	-316
」。	-317
后来	-318
年代	-319
城市	-320
学习	-321
荒谬	-322
比赛	-323
考试	-324
对于	-325
物理	-326
矛盾	-327
老汉	-328
幽默地	-329
我们	-330
德国	-331
说话	-332
。201	-333
的反	-334
28	-335
决定	-336
有一	-337
一样	-338
40	-339
▁M	-340
很多	-341
说法	-342
北京	-343
利亚	-344
强调	-345
▁通过	-346
▁A	-347
技术	-348
22	-349
具有	-350
车站	-351
王老汉	-352
应该	-353
节目	-354
共和国	-355
完成	-356
▁这句话通过	-357
出了	-358
el	-359
并不是	-360
生物	-361
mu	-362
本身	-363
,200	-364
子的	-365
并且	-366
23	-367
罗斯	-368
全国	-369
然而	-370
解释	-371
过程	-372
战争	-373
选择	-374
分别	-375
保护	-376
这是	-377
is	-378
这里的	-379
意义	-380
弱智	-381
这样	-382
足球	-383
还是	-384
目前	-385
。200	-386
第三	-387
荒诞	-388
es	-389
喜欢	-390
含义	-391
冠军	-392
系列	-393
分布	-394
著名	-395
60	-396
ol	-397
100	-398
27	-399
参与	-400
或者	-401
1.	-402
任何	-403
的行为	-404
自由	-405
mula	-406
的不	-407
formula	-408
成员	-409
拥有	-410
毕业	-411
出生	-412
最高	-413
上海	-414
尼亚	-415
笑话	-416
加入	-417
类比	-418
了一个	-419
女性	-420
工程	-421
建立	-422
受到	-423
197	-424
在这里	-425
支持	-426
密度	-427
26	-428
il	-429
情况	-430
状态	-431
制作	-432
父亲	-433
我的	-434
夸张的	-435
2.	-436
论文	-437
之前	-438
结束	-439
动物	-440
增加	-441
知道	-442
大陆	-443
行政	-444
原因	-445
艺术	-446
▁B	-447
完全	-448
相关	-449
知识	-450
医生	-451
表面	-452
来自	-453
传统	-454
特别	-455
化学	-456
om	-457
》、	-458
发行	-459
民国	-460
联合	-461
组成	-462
举行	-463
原本	-464
同年	-465
不过	-466
出的	-467
29	-468
▁t	-469
理解为	-470
ion	-471
反应	-472
另一	-473
道德	-474
标准	-475
学名	-476
▁此	-477
得到	-478
文学	-479
南部	-480
宣布	-481
印度	-482
反映	-483
高度	-484
et	-485
zh	-486
数学	-487
▁T	-488
环境	-489
▁P	-490
演员	-491
达到	-492
▁(	-493
成语	-494
的时候	-495
性的	-496
能够	-497
80	-498
出版	-499
一直	-500
of	-501
单位	-502
人口密度	-503
朋友	-504
者的	-505
例如	-506
大利	-507
人员	-508
会议	-509
食人	-510
独立	-511
之间的	-512
欧洲	-513
俄罗斯	-514
:)	-515
并不	-516
于是	-517
总统	-518
中文	-519
也有	-520
里的	-521
的大	-522
普通	-523
经过	-524
194	-525
海拔	-526
国民	-527
新闻	-528
▁因为	-529
从而	-530
下的	-531
时代	-532
出来	-533
正常	-534
专辑	-535
继续	-536
ing	-537
句子	-538
生命	-539
(,	-540
企业	-541
垃圾	-542
位于该	-543
开发	-544
使用了	-545
方法	-546
讽刺了	-547
as	-548
接受	-549
造成	-550
ch	-551
北部	-552
形式	-553
是因为	-554
-{	-555
}-	-556
取得	-557
》、《	-558
幽默效果	-559
还有	-560
严重	-561
控制	-562
——	-563
二十	-564
行星	-565
法律	-566
警察	-567
食人族	-568
的话	-569
的效果	-570
也可以	-571
生产	-572
一个人	-573
1,	-574
主教	-575
人在	-576
处理	-577
总面积	-578
自然	-579
说明	-580
分子	-581
恐怖	-582
其实	-583
前往	-584
超过	-585
管辖	-586
的一种	-587
他在	-588
去世	-589
列车	-590
只是	-591
行动	-592
人民共和国	-593
机场	-594
采用	-595
借用了	-596
形象	-597
它们	-598
罗马	-599
航空	-600
的特	-601
▁H	-602
的小	-603
除了	-604
则是	-605
希望	-606
id	-607
警官	-608
ro	-609
同学	-610
35	-611
此处	-612
暗示了	-613
定的	-614
领导	-615
结构	-616
提出	-617
银行	-618
》(	-619
只能	-620
后的	-621
甚至	-622
经常	-623
未来	-624
三个	-625
任务	-626
面的	-627
为什么	-628
”(	-629
自嘲	-630
小时	-631
是中国	-632
幽默的方式	-633
球队	-634
简单	-635
集团	-636
▁小	-637
相当	-638
位置	-639
2010	-640
的一个市镇	-641
nt	-642
努力	-643
感到	-644
电子	-645
某些	-646
类似	-647
195	-648
的地	-649
距离	-650
斯特	-651
在一起	-652
合作	-653
交通	-654
31	-655
海军	-656
某种	-657
离开	-658
身份	-659
!”	-660
有关	-661
心理	-662
创造	-663
中华人民共和国	-664
us	-665
▁R	-666
专业	-667
误解	-668
and	-669
职业	-670
场景	-671
大量	-672
有限	-673
歌曲	-674
196	-675
安全	-676
当地	-677
2011	-678
另外	-679
而且	-680
体的	-681
广东	-682
98	-683
▁L	-684
功能	-685
》。	-686
0.	-687
让人	-688
年人口	-689
名称	-690
韩国	-691
?”	-692
是不	-693
范围	-694
西亚	-695
双关语	-696
基本	-697
好的	-698
民主	-699
指出	-700
项目	-701
自我	-702
首次	-703
表达了对	-704
计算	-705
食物	-706
的情况	-707
必须	-708
那么	-709
▁该	-710
对方	-711
是由	-712
了一种	-713
一次	-714
改变	-715
十二	-716
极端	-717
意大利	-718
学家	-719
批评	-720
▁G	-721
平均	-722
显示	-723
男性	-724
▁"	-725
军事	-726
的结果	-727
不要	-728
流行	-729
黑色	-730
的调侃	-731
引发	-732
▁D	-733
一年	-734
70	-735
作者	-736
看到	-737
ac	-738
信息	-739
变化	-740
失败	-741
选举	-742
变成了	-743
的无	-744
解决	-745
动画	-746
巧妙	-747
90	-748
使得	-749
高中	-750
错误	-751
整个	-752
创作	-753
质量	-754
了对	-755
风格	-756
体育	-757
并在	-758
轻松	-759
位于该国	-760
意味着	-761
三年	-762
公路	-763
比较	-764
包含	-765
文字	-766
ad	-767
相似	-768
而是	-769
内的	-770
不到	-771
▁F	-772
调查	-773
45	-774
ed	-775
ow	-776
▁本	-777
英语	-778
不同的	-779
ig	-780
工业	-781
小说	-782
物质	-783
用语	-784
死了	-785
中共	-786
事实	-787
政策	-788
主席	-789
帮助	-790
附近	-791
将其	-792
东北	-793
作用	-794
攻击	-795
相同	-796
睡觉	-797
强烈	-798
苏联	-799
联赛	-800
情感	-801
新的	-802
革命	-803
别人	-804
古代	-805
不合	-806
建于	-807
真正	-808
是否	-809
大家	-810
关于	-811
班牙	-812
理论	-813
真的	-814
精神	-815
西班牙	-816
3.	-817
上帝	-818
思想	-819
暗指	-820
儿子	-821
幽默感	-822
运用了	-823
成绩	-824
▁of	-825
今天	-826
主任	-827
阿尔	-828
帝国	-829
以为	-830
改为	-831
数据	-832
第一次	-833
99	-834
动作	-835
实验	-836
机构	-837
父母	-838
媒体	-839
联系起来	-840
共同	-841
进士	-842
分布于	-843
os	-844
并没有	-845
发表	-846
男子	-847
变成	-848
失去	-849
英文	-850
共产	-851
对话	-852
展现	-853
教授	-854
军队	-855
在于	-856
执行	-857
朝鲜	-858
用的	-859
ent	-860
中国大陆	-861
36	-862
意外	-863
直到	-864
建设	-865
方向	-866
故意	-867
来说	-868
38	-869
版本	-870
程序	-871
突然	-872
制度	-873
持续	-874
民族	-875
身体	-876
海拔高度	-877
▁I	-878
空间	-879
▁将	-880
拟人	-881
改编	-882
化的	-883
复杂	-884
有了	-885
联盟	-886
重新	-887
常见	-888
时的	-889
一步	-890
战斗	-891
ur	-892
分为	-893
曾经	-894
表明	-895
连续	-896
中华民国	-897
37	-898
逐渐	-899
台北	-900
2012	-901
两种	-902
加上	-903
象征	-904
都会	-905
面对	-906
出一种	-907
的主	-908
简称	-909
设有	-910
总人口	-911
报告	-912
语双关	-913
美元	-914
以后	-915
公园	-916
四川	-917
不可	-918
他们的	-919
建议	-920
被称为	-921
热带	-922
纪录	-923
负责管辖	-924
▁d	-925
39	-926
再次	-927
此外	-928
程度	-929
玩家	-930
不再	-931
妈妈	-932
反差	-933
就会	-934
目的	-935
▁大	-936
。“	-937
全部	-938
多数	-939
共有	-940
但在	-941
元素	-942
氧化	-943
字面意思	-944
学术	-945
亚洲	-946
仍然	-947
容易	-948
34	-949
真实	-950
的谐音	-951
运动员	-952
反对	-953
一词	-954
为主	-955
原子	-956
回答	-957
各种	-958
拍摄	-959
细胞	-960
2009	-961
区域	-962
变得	-963
部队	-964
王警官	-965
发布	-966
怎么	-967
然后	-968
自治	-969
声音	-970
将军	-971
过去	-972
命名	-973
....	-974
困难	-975
多的	-976
家庭	-977
连接	-978
un	-979
年时	-980
英雄	-981
实现	-982
资源	-983
博士	-984
年至	-985
觉得	-986
可能是	-987
拒绝	-988
星星	-989
居民	-990
展示	-991
ir	-992
唯一	-993
ot	-994
十年	-995
才能	-996
医院	-997
广告	-998
他人	-999
利用了	-1000
基础	-1001
.5	-1002
有的	-1003
证明	-1004
一条	-1005
od	-1006
有些	-1007
模式	-1008
的人口	-1009
▁E	-1010
随后	-1011
48	-1012
em	-1013
▁W	-1014
条件	-1015
2,	-1016
:「	-1017
同样	-1018
商业	-1019
大会	-1020
法院	-1021
领域	-1022
可能会	-1023
太平	-1024
女子	-1025
指代	-1026
结婚	-1027
2000	-1028
省的一个市镇	-1029
母亲	-1030
纪念	-1031
组合	-1032
的问题	-1033
第一个	-1034
一语双关	-1035
产品	-1036
半句	-1037
对应	-1038
年轻	-1039
颜色	-1040
不可能	-1041
不仅	-1042
格兰	-1043
的事情	-1044
平台	-1045
歌手	-1046
飞机	-1047
ia	-1048
保持	-1049
公共	-1050
ay	-1051
那些	-1052
公开	-1053
定义	-1054
han	-1055
演唱	-1056
而在	-1057
2016	-1058
中学	-1059
希腊	-1060
2013	-1061
娱乐	-1062
最佳	-1063
都有	-1064
巧妙地	-1065
生的	-1066
表演	-1067
重复	-1068
等地	-1069
解放	-1070
设立	-1071
即使	-1072
引起	-1073
排名	-1074
议会	-1075
全球	-1076
记录	-1077
的意思是	-1078
▁c	-1079
举办	-1080
规模	-1081
阿拉	-1082
高考	-1083
(18	-1084
的名字	-1085
不断	-1086
产生了	-1087
兄弟	-1088
区的	-1089
尽管	-1090
破坏	-1091
西部	-1092
道路	-1093
长的	-1094
书记	-1095
速度	-1096
▁小明	-1097
大部分	-1098
说话者	-1099
议员	-1100
的概念	-1101
▁the	-1102
3,	-1103
」(	-1104
尸体	-1105
指挥	-1106
符合	-1107
终于	-1108
出身	-1109
协会	-1110
联邦	-1111
资本	-1112
专家	-1113
关注	-1114
态度	-1115
福建	-1116
表面上	-1117
有限公司	-1118
事情	-1119
官方	-1120
ation	-1121
协议	-1122
她的	-1123
▁‘	-1124
事务	-1125
年间	-1126
65	-1127
东南	-1128
处于	-1129
天空	-1130
统治	-1131
共产党	-1132
进一步	-1133
政治人物	-1134
和平	-1135
市场	-1136
第二次	-1137
ri	-1138
文物	-1139
机车	-1140
活着	-1141
犯罪	-1142
发音	-1143
并非	-1144
电脑	-1145
观察	-1146
作业	-1147
减少	-1148
戏谑	-1149
手术	-1150
本意是	-1151
宗教	-1152
机会	-1153
比作	-1154
治疗	-1155
观点	-1156
表达对	-1157
▁K	-1158
法官	-1159
95	-1160
人士	-1161
▁s	-1162
本来	-1163
杀死	-1164
▁此句	-1165
,《	-1166
克兰	-1167
日在	-1168
皇帝	-1169
网站	-1170
▁这个	-1171
主持	-1172
以下	-1173
作家	-1174
2008	-1175
不久	-1176
健康	-1177
属的	-1178
的一部分	-1179
十分	-1180
评论	-1181
讨论	-1182
思考	-1183
天的	-1184
这样的	-1185
以来	-1186
水平	-1187
高速	-1188
2015	-1189
妻子	-1190
明显	-1191
试图	-1192
认为是	-1193
每个	-1194
过度	-1195
部长	-1196
2007	-1197
第四	-1198
的影响	-1199
尔斯	-1200
设置	-1201
马来	-1202
的东西	-1203
%,	-1204
49	-1205
克斯	-1206
冲突	-1207
资料	-1208
▁由于	-1209
2014	-1210
55	-1211
情绪	-1212
葡萄	-1213
蒙古	-1214
土地	-1215
2017	-1216
东京	-1217
准备	-1218
广泛	-1219
记载	-1220
也就是	-1221
47	-1222
op	-1223
决赛	-1224
武器	-1225
价值	-1226
就像	-1227
漫画	-1228
西北	-1229
进行了	-1230
二次	-1231
它的	-1232
最初	-1233
最大	-1234
自动	-1235
观众	-1236
规定	-1237
」、	-1238
国王	-1239
神话	-1240
趣味	-1241
强调了	-1242
")	-1243
严肃	-1244
的新	-1245
路线	-1246
是法国	-1247
▁用	-1248
分类	-1249
团体	-1250
演出	-1251
46	-1252
按照	-1253
有人	-1254
33	-1255
发动	-1256
多个	-1257
2001	-1258
2006	-1259
传说	-1260
纽约	-1261
表达方式	-1262
分钟	-1263
加拿	-1264
单曲	-1265
基督	-1266
扮演	-1267
学位	-1268
部份	-1269
的说法	-1270
广州	-1271
积极	-1272
情况下	-1273
著名的	-1274
上了	-1275
每天	-1276
经典	-1277
美洲	-1278
记忆	-1279
im	-1280
iv	-1281
巴士	-1282
是为了	-1283
75	-1284
ec	-1285
压力	-1286
国的	-1287
相对	-1288
缺乏	-1289
其后	-1290
明朝	-1291
看似	-1292
▁N	-1293
公主	-1294
内部	-1295
南京	-1296
投资	-1297
。198	-1298
每平方公里	-1299
上班	-1300
大战	-1301
河南	-1302
ra	-1303
目标	-1304
网络用语	-1305
不满	-1306
原句	-1307
并于	-1308
空气	-1309
’,	-1310
推出	-1311
粉丝	-1312
约翰	-1313
190	-1314
一定	-1315
下来	-1316
哲学	-1317
多次	-1318
避免	-1319
难以	-1320
乌克兰	-1321
存在的	-1322
电视剧	-1323
同性	-1324
山东	-1325
科技	-1326
的地方	-1327
老婆	-1328
▁一	-1329
号线	-1330
病人	-1331
城镇	-1332
广场	-1333
统一	-1334
下的一个	-1335
同意	-1336
赛事	-1337
77	-1338
竞争	-1339
西南	-1340
黑色幽默	-1341
击败	-1342
分析	-1343
方便	-1344
日语	-1345
浙江	-1346
运用	-1347
阶段	-1348
te	-1349
um	-1350
交流	-1351
合并	-1352
常识	-1353
年在	-1354
用户	-1355
的前	-1356
,000	-1357
32	-1358
以上	-1359
分裂	-1360
基于	-1361
想要	-1362
理的	-1363
金属	-1364
夸张和	-1365
原意	-1366
地的	-1367
宇宙	-1368
恢复	-1369
想象	-1370
源于	-1371
NA	-1372
人是	-1373
只要	-1374
当中	-1375
栖息	-1376
经历	-1377
而被	-1378
设施	-1379
nd	-1380
办公	-1381
品牌	-1382
对象	-1383
循环	-1384
赢得	-1385
天主教	-1386
交易	-1387
生于	-1388
训练	-1389
加拿大	-1390
地下	-1391
身上	-1392
的主要	-1393
伦敦	-1394
儿童	-1395
名的	-1396
显得	-1397
注意	-1398
第十	-1399
评价	-1400
反映了	-1401
应用	-1402
意识	-1403
混淆	-1404
自杀	-1405
的人口为	-1406
▁,	-1407
僵尸	-1408
函数	-1409
第五	-1410
聪明	-1411
视为	-1412
。」	-1413
在此	-1414
日常	-1415
群岛	-1416
谐音梗	-1417
▁这是对	-1418
▁这里通过	-1419
幽默的效果	-1420
形成了一种	-1421
44	-1422
一位	-1423
拖延	-1424
揭示	-1425
的重要	-1426
但实际上	-1427
人口密度每平方公里	-1428
博物	-1429
轨道	-1430
前的	-1431
心脏	-1432
早期	-1433
而非	-1434
联网	-1435
西方	-1436
的讽刺	-1437
▁把	-1438
传播	-1439
数量	-1440
最大的	-1441
”、	-1442
选手	-1443
重要的	-1444
拉斯	-1445
说道	-1446
96	-1447
97	-1448
死后	-1449
诙谐	-1450
%。	-1451
导演	-1452
是个	-1453
社区	-1454
的原因	-1455
反讽	-1456
成为了	-1457
的故事	-1458
几个	-1459
四年	-1460
年龄	-1461
建造	-1462
但这里	-1463
的无奈	-1464
▁人	-1465
学者	-1466
一名	-1467
发明	-1468
星期	-1469
基因	-1470
大赛	-1471
奈何	-1472
家族	-1473
广播	-1474
开放	-1475
操作	-1476
比如	-1477
综合	-1478
相当于	-1479
主角	-1480
回应	-1481
少年	-1482
曾任	-1483
等人	-1484
色的	-1485
ag	-1486
oc	-1487
取代	-1488
尼斯	-1489
成的	-1490
。18	-1491
▁J	-1492
恒星	-1493
无关	-1494
汽车	-1495
老王	-1496
使用的	-1497
的意味	-1498
官员	-1499
描绘	-1500
规则	-1501
资格	-1502
2005	-1503
司令	-1504
88	-1505
地铁	-1506
完整	-1507
未能	-1508
统计	-1509
翻译	-1510
遇到	-1511
播出	-1512
晚上	-1513
物种	-1514
国民党	-1515
弱智吧	-1516
通常指	-1517
回到	-1518
外交	-1519
当选	-1520
规划	-1521
警方	-1522
设备	-1523
购买	-1524
里面	-1525
互联网	-1526
历史上	-1527
加坡	-1528
天才	-1529
字母	-1530
怀疑	-1531
球员	-1532
2004	-1533
用来形容	-1534
东部	-1535
两者	-1536
伊斯	-1537
清朝	-1538
飞行	-1539
”、“	-1540
」、「	-1541
原指	-1542
又称	-1543
博物馆	-1544
▁p	-1545
改革	-1546
继承	-1547
至今	-1548
随着	-1549
青年	-1550
出自	-1551
经营	-1552
之外	-1553
令人	-1554
我是	-1555
有趣	-1556
玩笑	-1557
透过	-1558
拟人化	-1559
66	-1560
公布	-1561
力量	-1562
危险	-1563
承认	-1564
最早	-1565
检查	-1566
确实	-1567
▁18	-1568
该市镇	-1569
元年	-1570
天气	-1571
宣传	-1572
杂志	-1573
限制	-1574
首都	-1575
的反差	-1576
不好	-1577
图书	-1578
型的	-1579
越南	-1580
真正的	-1581
获得了	-1582
调侃了	-1583
这里将	-1584
表达了一种	-1585
不少	-1586
两人	-1587
双重	-1588
子里	-1589
暴力	-1590
条约	-1591
清华	-1592
特的	-1593
背景	-1594
自身	-1595
出生于	-1596
制造了	-1597
是美国	-1598
人和	-1599
双方	-1600
大楼	-1601
小孩	-1602
年度	-1603
空军	-1604
营造	-1605
始建于	-1606
新加坡	-1607
.0	-1608
58	-1609
会的	-1610
遭到	-1611
里斯	-1612
有一个	-1613
往往	-1614
更加	-1615
▁为了	-1616
th	-1617
成年	-1618
找到	-1619
进攻	-1620
76	-1621
你的	-1622
四个	-1623
地位	-1624
机器	-1625
结论	-1626
贸易	-1627
描述了	-1628
2018	-1629
▁这是一个	-1630
▁O	-1631
业务	-1632
如何	-1633
家长	-1634
感觉	-1635
移动	-1636
同性恋	-1637
过程中	-1638
下降	-1639
也会	-1640
同一	-1641
左右	-1642
缩写	-1643
非洲	-1644
和讽刺	-1645
三十	-1646
先后	-1647
命运	-1648
判断	-1649
的学生	-1650
ul	-1651
重庆	-1652
计算机	-1653
属下的一个	-1654
ce	-1655
女儿	-1656
挑战	-1657
旅游	-1658
经验	-1659
生理	-1660
荷兰	-1661
词语	-1662
赛季	-1663
,19	-1664
的对比	-1665
▁m	-1666
人数	-1667
快乐	-1668
高的	-1669
的现象	-1670
也在	-1671
假设	-1672
动力	-1673
巴黎	-1674
符号	-1675
诸葛	-1676
1000	-1677
北方	-1678
教堂	-1679
本质	-1680
爱情	-1681
责任	-1682
ers	-1683
常见的	-1684
下了	-1685
习惯	-1686
任命	-1687
公尺	-1688
大约	-1689
年起	-1690
感情	-1691
手段	-1692
报道	-1693
有时	-1694
胜利	-1695
都不	-1696
▁。	-1697
几乎	-1698
坚持	-1699
每年	-1700
风暴	-1701
出现在	-1702
▁b	-1703
吸引	-1704
文件	-1705
澳门	-1706
爆发	-1707
是位于	-1708
(,),	-1709
▁这里将	-1710
og	-1711
快速	-1712
立法	-1713
年时的人口为	-1714
以此	-1715
夸大	-1716
小的	-1717
就能	-1718
流浪	-1719
太平洋	-1720
马来西亚	-1721
。《	-1722
充满	-1723
想到	-1724
羽毛	-1725
老人	-1726
车辆	-1727
▁这是	-1728
世界上	-1729
.8	-1730
也被	-1731
伤害	-1732
住了	-1733
出任	-1734
天津	-1735
曹操	-1736
比亚	-1737
相信	-1738
祖父	-1739
衣服	-1740
部门	-1741
ov	-1742
协助	-1743
占领	-1744
战役	-1745
温度	-1746
的原	-1747
高级	-1748
在中国	-1749
引用了	-1750
科学家	-1751
采用了	-1752
为一	-1753
之下	-1754
天文	-1755
特殊	-1756
现场	-1757
讲述	-1758
500	-1759
▁w	-1760
万人	-1761
典故	-1762
同音	-1763
如此	-1764
的名	-1765
运输	-1766
的手法	-1767
表现出	-1768
68	-1769
在这	-1770
影片	-1771
斯坦	-1772
明星	-1773
有效	-1774
生长	-1775
维持	-1776
语气	-1777
间的	-1778
需求	-1779
一点	-1780
乐部	-1781
国内	-1782
性和	-1783
提到	-1784
应该是	-1785
简单的	-1786
("	-1787
作战	-1788
带来	-1789
方程	-1790
是以	-1791
现时	-1792
夸张地	-1793
本意是指	-1794
兴建	-1795
唱片	-1796
河流	-1797
相反	-1798
请求	-1799
介绍	-1800
在地	-1801
成就	-1802
特征	-1803
街道	-1804
92	-1805
ab	-1806
命令	-1807
奥运	-1808
歧视	-1809
确定	-1810
俱乐部	-1811
的时间	-1812
64	-1813
▁他	-1814
岁的	-1815
悟空	-1816
禁止	-1817
饰演	-1818
诸葛亮	-1819
俗语	-1820
原来	-1821
可达	-1822
年后	-1823
是不是	-1824
乐团	-1825
南极	-1826
发出	-1827
提高	-1828
模仿	-1829
米的	-1830
TA	-1831
产业	-1832
奥斯	-1833
是一位	-1834
的场景	-1835
三角	-1836
不明	-1837
人体	-1838
基金	-1839
生死	-1840
绝对	-1841
课程	-1842
形象地	-1843
ap	-1844
ik	-1845
从事	-1846
工具	-1847
常常	-1848
方案	-1849
此后	-1850
用作	-1851
相互	-1852
在美国	-1853
▁-	-1854
▁V	-1855
上有	-1856
不了	-1857
丰富	-1858
今日	-1859
仪式	-1860
居住	-1861
机关	-1862
湖南	-1863
的水	-1864
耶稣	-1865
同时也	-1866
解放军	-1867
",	-1868
停止	-1869
含有	-1870
因而	-1871
大型	-1872
患者	-1873
舰队	-1874
都在	-1875
不想	-1876
中有	-1877
农业	-1878
国务	-1879
情节	-1880
测试	-1881
混合	-1882
等于	-1883
老年	-1884
量子	-1885
得到了	-1886
的事实	-1887
可能是在	-1888
中部	-1889
某个	-1890
正在	-1891
江苏	-1892
金钱	-1893
69	-1894
▁前	-1895
员工	-1896
数字	-1897
78	-1898
▁有	-1899
嘲讽	-1900
展开	-1901
提升	-1902
长度	-1903
出来的	-1904
的一座	-1905
ak	-1906
不得	-1907
个月	-1908
之中	-1909
作弊	-1910
后者	-1911
方言	-1912
普遍	-1913
的不满	-1914
ut	-1915
尤其	-1916
接近	-1917
放弃	-1918
生涯	-1919
西省	-1920
障碍	-1921
ine	-1922
▁formula	-1923
写的	-1924
山脉	-1925
巴西	-1926
播放	-1927
狮子	-1928
球场	-1929
秘书	-1930
考生	-1931
观测	-1932
返回	-1933
针对	-1934
频道	-1935
发射	-1936
差异	-1937
贝尔	-1938
那个	-1939
二次元	-1940
的状态	-1941
▁198	-1942
▁马	-1943
不足	-1944
人对	-1945
人生	-1946
公分	-1947
基地	-1948
能量	-1949
长期	-1950
驾驶	-1951
小行星	-1952
的双关	-1953
结合了	-1954
的情况下	-1955
94	-1956
到达	-1957
宝宝	-1958
教区	-1959
法的	-1960
海洋	-1961
眼睛	-1962
(16	-1963
图书馆	-1964
的逻辑	-1965
一世	-1966
力的	-1967
周围	-1968
整体	-1969
记者	-1970
一致	-1971
依然	-1972
具体	-1973
刘备	-1974
及其	-1975
州的	-1976
意指	-1977
斯科	-1978
新疆	-1979
涉及	-1980
的历史	-1981
恐怖分子	-1982
初期	-1983
委会	-1984
对手	-1985
曾在	-1986
运行	-1987
阅读	-1988
大多数	-1989
另一方面	-1990
av	-1991
会有	-1992
保留	-1993
信号	-1994
所谓	-1995
推理	-1996
永远	-1997
苹果	-1998
解读	-1999
高等	-2000
黄色	-2001
另一个	-2002
2002	-2003
▁2017	-2004
57	-2005
事物	-2006
二年	-2007
代码	-2008
材料	-2009
超级	-2010
当时的	-2011
最后一	-2012
中国人民	-2013
67	-2014
▁阿	-2015
医疗	-2016
意为	-2017
科的	-2018
词汇	-2019
增加了	-2020
下午	-2021
云南	-2022
或不	-2023
或是	-2024
▁李	-2025
下辖	-2026
东方	-2027
五年	-2028
会在	-2029
办法	-2030
境内	-2031
扫黄	-2032
灵魂	-2033
西藏	-2034
300	-2035
ard	-2036
不知道	-2037
文物保护	-2038
区负责管辖	-2039
上课	-2040
二世	-2041
制的	-2042
劳动	-2043
医学	-2044
大人	-2045
威廉	-2046
根本	-2047
海绵	-2048
谈判	-2049
这么	-2050
▁该句	-2051
奈何桥	-2052
就可以	-2053
▁这句话用	-2054
ub	-2055
先生	-2056
公元	-2057
性质	-2058
机械	-2059
炸弹	-2060
爸爸	-2061
运营	-2062
地区的	-2063
年开始	-2064
通常是	-2065
42	-2066
体现	-2067
实施	-2068
权力	-2069
消费	-2070
邀请	-2071
的世界	-2072
▁and	-2073
乌克兰的	-2074
主人	-2075
休息	-2076
寿命	-2077
引擎	-2078
日起	-2079
理由	-2080
知名	-2081
稳定	-2082
绑架	-2083
顾客	-2084
电视台	-2085
的关系	-2086
阿拉伯	-2087
收入	-2088
消息	-2089
线的	-2090
随著	-2091
,2009	-2092
▁为	-2093
似乎	-2094
前后	-2095
半岛	-2096
支援	-2097
条命	-2098
锦标	-2099
The	-2100
孙悟空	-2101
的情境	-2102
英格兰	-2103
斯基	-2104
王朝	-2105
虚构	-2106
那里	-2107
降低	-2108
集中	-2109
原子弹	-2110
因此有了	-2111
文物保护单位	-2112
▁你	-2113
一带	-2114
中山	-2115
十六	-2116
维尔	-2117
,2001	-2118
人工	-2119
少数	-2120
戏剧	-2121
收录	-2122
月亮	-2123
核心	-2124
案件	-2125
电话	-2126
这里是	-2127
通过这种	-2128
ie	-2129
ss	-2130
主题	-2131
像是	-2132
反转	-2133
夏季	-2134
尚未	-2135
打击	-2136
无奈	-2137
森林	-2138
氛围	-2139
等待	-2140
质疑	-2141
酒店	-2142
展示了	-2143
羽毛球	-2144
▁当	-2145
投入	-2146
斯的	-2147
日军	-2148
月台	-2149
气象	-2150
的首	-2151
至少	-2152
访问	-2153
赋予	-2154
防止	-2155
ind	-2156
后半句	-2157
生活中	-2158
自治区	-2159
这里指	-2160
意义上的	-2161
56	-2162
ne	-2163
在这个	-2164
▁U	-2165
打破	-2166
监狱	-2167
看见	-2168
输入	-2169
的作品	-2170
.7	-2171
▁不	-2172
创立	-2173
卫生	-2174
又名	-2175
各地	-2176
因素	-2177
外的	-2178
有着	-2179
村落	-2180
男孩	-2181
而不	-2182
董事	-2183
表述	-2184
销售	-2185
:00	-2186
ice	-2187
2003	-2188
也不	-2189
互动	-2190
否定	-2191
愤怒	-2192
教会	-2193
权利	-2194
办公室	-2195
命名为	-2196
的第一	-2197
其中男性	-2198
▁2016	-2199
”“	-2200
不死	-2201
主张	-2202
光绪	-2203
害怕	-2204
搞笑	-2205
毫米	-2206
民众	-2207
波兰	-2208
满足	-2209
类型	-2210
视频	-2211
演唱会	-2212
hans	-2213
......	-2214
深度	-2215
秘密	-2216
:),	-2217
是乌克兰的	-2218
属下的一个种	-2219
,「	-2220
41	-2221
52	-2222
▁王	-2223
允许	-2224
发起	-2225
后面	-2226
威胁	-2227
州市	-2228
的海	-2229
直至	-2230
线路	-2231
读书	-2232
的情感	-2233
="	-2234
II	-2235
br	-2236
司马	-2237
国立	-2238
总部	-2239
文章	-2240
蛋白	-2241
lay	-2242
伊斯兰	-2243
▁的	-2244
争议	-2245
日至	-2246
普查	-2247
笑点	-2248
编号	-2249
五个	-2250
南方	-2251
发电	-2252
德里	-2253
批判	-2254
的高	-2255
考虑	-2256
货币	-2257
▁根据	-2258
拖延症	-2259
是日本	-2260
▁这里借用了	-2261
93	-2262
偶像	-2263
兴趣	-2264
外国	-2265
学会	-2266
是从	-2267
标志	-2268
ill	-2269
临时	-2270
政权	-2271
更多	-2272
欢迎	-2273
气候	-2274
电台	-2275
的能力	-2276
参赛	-2277
地图	-2278
地狱	-2279
当作	-2280
总督	-2281
无人	-2282
消失	-2283
等等	-2284
职务	-2285
语境	-2286
**	-2287
公民	-2288
子是	-2289
小心	-2290
陆军	-2291
1997	-2292
▁2014	-2293
受伤	-2294
导师	-2295
就读	-2296
德语	-2297
遗址	-2298
院长	-2299
▁1.	-2300
▁St	-2301
的内容	-2302
▁2012	-2303
联系在一起	-2304
告诉	-2305
文明	-2306
民间	-2307
int	-2308
St	-2309
ud	-2310
up	-2311
多年	-2312
实行	-2313
金牌	-2314
高雄	-2315
400	-2316
毕业于	-2317
的方法	-2318
以前	-2319
死的	-2320
殖民	-2321
状况	-2322
种族	-2323
观念	-2324
中国的	-2325
士兵	-2326
式的	-2327
手机	-2328
河北	-2329
色列	-2330
软件	-2331
985	-2332
ell	-2333
所以说	-2334
看起来	-2335
夸张手法	-2336
七年	-2337
内卷	-2338
大道	-2339
太空	-2340
引用	-2341
批准	-2342
有两	-2343
疾病	-2344
追求	-2345
陈述	-2346
的研究	-2347
▁王老汉	-2348
▁这里是	-2349
进行类比	-2350
夸张的方式	-2351
59	-2352
▁1	-2353
为人	-2354
国会	-2355
的中	-2356
蝴蝶	-2357
国务院	-2358
79	-2359
与其	-2360
他是	-2361
将会	-2362
正确	-2363
生殖	-2364
的光	-2365
议院	-2366
的语言	-2367
运动会	-2368
通过将	-2369
43	-2370
IS	-2371
公众	-2372
十八	-2373
县人	-2374
声称	-2375
市民	-2376
感染	-2377
澳大	-2378
皇家	-2379
著作	-2380
言论	-2381
以色列	-2382
出现了	-2383
文化的	-2384
时间的	-2385
▁自	-2386
动漫	-2387
发言	-2388
圣诞	-2389
大师	-2390
很快	-2391
打开	-2392
的三	-2393
而言	-2394
陷入	-2395
首先	-2396
的工作	-2397
第二个	-2398
这两个	-2399
1999	-2400
一天	-2401
主演	-2402
乘客	-2403
子手	-2404
年前	-2405
死去	-2406
源自	-2407
重点	-2408
隐喻	-2409
是一名	-2410
该市镇总面积	-2411
初音	-2412
危机	-2413
市的	-2414
教学	-2415
离婚	-2416
过于	-2417
鳍鱼	-2418
的形式	-2419
63	-2420
▁2	-2421
了解	-2422
伯特	-2423
佛教	-2424
借用	-2425
场上	-2426
当然	-2427
投票	-2428
显然	-2429
此时	-2430
水的	-2431
老院	-2432
辐鳍鱼	-2433
辐鳍鱼纲	-2434
51	-2435
Ch	-2436
会员	-2437
坦克	-2438
性别	-2439
自信	-2440
调整	-2441
(19	-2442
ian	-2443
的含义	-2444
葡萄牙	-2445
被认为是	-2446
ge	-2447
▁天	-2448
一句	-2449
体系	-2450
动机	-2451
可见	-2452
日期	-2453
爆炸	-2454
队的	-2455
字面上	-2456
锦标赛	-2457
1990	-2458
的幽默感	-2459
72	-2460
BA	-2461
一场	-2462
傻子	-2463
多少	-2464
小学	-2465
得以	-2466
阎王	-2467
▁如果	-2468
层含义	-2469
而这里	-2470
行政区	-2471
制造幽默	-2472
中国共产党	-2473
夸张的手法	-2474
的幽默效果	-2475
取消	-2476
寻找	-2477
总理	-2478
效应	-2479
来源	-2480
瑞士	-2481
花园	-2482
的情景	-2483
高速公路	-2484
91	-2485
▁新	-2486
人为	-2487
反而	-2488
强度	-2489
拉克	-2490
效力	-2491
术语	-2492
测量	-2493
滑稽	-2494
物品	-2495
的两	-2496
至于	-2497
色彩	-2498
证据	-2499
轰炸	-2500
遗憾	-2501
150	-2502
ip	-2503
▁从	-2504
乔治	-2505
成都	-2506
流域	-2507
给了	-2508
被迫	-2509
产生的	-2510
典礼	-2511
用在	-2512
的女	-2513
遗产	-2514
ern	-2515
发现了	-2516
61	-2517
▁f	-2518
创办	-2519
十一	-2520
华盛	-2521
太子	-2522
始皇	-2523
尔德	-2524
梦境	-2525
模型	-2526
气旋	-2527
真相	-2528
红色	-2529
给予	-2530
股份	-2531
装置	-2532
说是	-2533
较为	-2534
采取	-2535
马克	-2536
600	-2537
1998	-2538
▁2010	-2539
为辐鳍鱼纲	-2540
体长	-2541
技能	-2542
激烈	-2543
由此	-2544
等为	-2545
设定	-2546
读者	-2547
华盛顿	-2548
秦始皇	-2549
澳大利亚	-2550
▁2015	-2551
54	-2552
74	-2553
hk	-2554
九龙	-2555
叙述	-2556
召开	-2557
土耳	-2558
失眠	-2559
嫌疑	-2560
客观	-2561
工资	-2562
建成	-2563
有所	-2564
王国	-2565
突破	-2566
葬礼	-2567
询问	-2568
▁是	-2569
代指	-2570
十九	-2571
千米	-2572
地利	-2573
大臣	-2574
尴尬	-2575
年被	-2576
悖论	-2577
抗日	-2578
教练	-2579
海域	-2580
海岸	-2581
虚拟	-2582
art	-2583
▁in	-2584
土耳其	-2585
区别	-2586
国防	-2587
废话	-2588
性格	-2589
政党	-2590
照片	-2591
菩萨	-2592
金融	-2593
队长	-2594
这个词	-2595
ob	-2596
了个	-2597
天下	-2598
特定	-2599
第七	-2600
第六	-2601
观看	-2602
钢琴	-2603
可能在	-2604
小明在	-2605
就没有	-2606
栖息在	-2607
意思是用	-2608
ht	-2609
▁三	-2610
事业	-2611
写作	-2612
出口	-2613
出门	-2614
华莱	-2615
去了	-2616
塞尔	-2617
夺得	-2618
小组	-2619
心的	-2620
浪漫	-2621
电力	-2622
病毒	-2623
米尔	-2624
群体	-2625
过的	-2626
重建	-2627
华莱士	-2628
完成了	-2629
生活的	-2630
实际上是	-2631
不起	-2632
人格	-2633
作曲	-2634
司机	-2635
技巧	-2636
杨永	-2637
汉化	-2638
湖北	-2639
皮肤	-2640
相比	-2641
自称	-2642
身为	-2643
基督教	-2644
的过程	-2645
53	-2646
体重	-2647
合物	-2648
好评	-2649
愿意	-2650
成长	-2651
指令	-2652
歌词	-2653
爱尔	-2654
电击	-2655
维亚	-2656
美军	-2657
黑白	-2658
世界的	-2659
一同	-2660
一家	-2661
发的	-2662
台中	-2663
固定	-2664
思维	-2665
毛利	-2666
清楚	-2667
澳洲	-2668
硬币	-2669
集合	-2670
进士出身	-2671
SA	-2672
上映	-2673
做法	-2674
奥林	-2675
安装	-2676
张飞	-2677
接触	-2678
来到	-2679
棺材	-2680
每次	-2681
等级	-2682
(17	-2683
;}-	-2684
不存在	-2685
杨永信	-2686
相矛盾	-2687
研究所	-2688
入侵	-2689
再度	-2690
列为	-2691
年底	-2692
杉矶	-2693
构成	-2694
白色	-2695
练习	-2696
进步	-2697
洛杉矶	-2698
的角色	-2699
二战	-2700
代替	-2701
常规	-2702
我不	-2703
教师	-2704
无论	-2705
认知	-2706
说我	-2707
在日本	-2708
奥地利	-2709
所有的	-2710
体长可达	-2711
一度	-2712
乐队	-2713
出去	-2714
名词	-2715
威尔	-2716
安排	-2717
客运	-2718
并未	-2719
得出	-2720
想法	-2721
所在	-2722
提问	-2723
斯拉	-2724
瑞典	-2725
申请	-2726
竟然	-2727
说的	-2728
贡献	-2729
还没	-2730
隔离	-2731
▁de	-2732
不是指	-2733
国家的	-2734
广东省	-2735
成立于	-2736
的反应	-2737
▁2011	-2738
可以理解为	-2739
十字	-2740
变为	-2741
外卖	-2742
彼得	-2743
掉了	-2744
柏林	-2745
犹太	-2746
现任	-2747
了一些	-2748
敬老院	-2749
▁2013	-2750
价格	-2751
关闭	-2752
叫做	-2753
合理	-2754
周边	-2755
推动	-2756
改名	-2757
明天	-2758
比特	-2759
的外	-2760
监考	-2761
签订	-2762
绿色	-2763
铁道	-2764
(15	-2765
爱尔兰	-2766
的设计	-2767
说的话	-2768
这里把	-2769
62	-2770
ue	-2771
司法	-2772
呼吸	-2773
哥伦	-2774
地面	-2775
旨在	-2776
硕士	-2777
违反	-2778
逝世	-2779
all	-2780
提出了	-2781
隶属于	-2782
世界大战	-2783
卡尔	-2784
去掉	-2785
宪法	-2786
市长	-2787
房子	-2788
杀人	-2789
武装	-2790
移民	-2791
购物	-2792
阴阳	-2793
隧道	-2794
ows	-2795
》()	-2796
但由于	-2797
游戏的	-2798
生物学	-2799
的不同	-2800
结束后	-2801
-1	-2802
ct	-2803
▁和	-2804
一段	-2805
专门	-2806
亦有	-2807
关键	-2808
其它	-2809
墨西	-2810
姆斯	-2811
德尔	-2812
必要	-2813
意志	-2814
指导	-2815
菲律	-2816
这次	-2817
逮捕	-2818
▁3	-2819
上网	-2820
人大	-2821
住宅	-2822
侦探	-2823
信仰	-2824
值得	-2825
声明	-2826
引入	-2827
日的	-2828
武汉	-2829
气氛	-2830
转向	-2831
展现了	-2832
菲律宾	-2833
中国人民解放军	-2834
是乌克兰的村落	-2835
tw	-2836
佛祖	-2837
广西	-2838
曲解	-2839
最低	-2840
爱国	-2841
神经	-2842
精卫	-2843
选区	-2844
领袖	-2845
公司的	-2846
程序员	-2847
人民政府	-2848
中国大陆的	-2849
估计	-2850
匈牙	-2851
厨师	-2852
混乱	-2853
直播	-2854
篮球	-2855
不需要	-2856
现实的	-2857
科的其中	-2858
亨利	-2859
修改	-2860
全长	-2861
只会	-2862
多多	-2863
年由	-2864
得知	-2865
资讯	-2866
过来	-2867
配合	-2868
顺利	-2869
匈牙利	-2870
带来的	-2871
民主党	-2872
1994	-2873
:"	-2874
上升	-2875
利益	-2876
化为	-2877
因果	-2878
增长	-2879
多种	-2880
大气	-2881
并将	-2882
打架	-2883
无线	-2884
汉语	-2885
袭击	-2886
视觉	-2887
角度	-2888
迅速	-2889
,18	-2890
墨西哥	-2891
来自于	-2892
正常的	-2893
保存	-2894
其余	-2895
匹克	-2896
各自	-2897
地理	-2898
字典	-2899
定律	-2900
对待	-2901
平等	-2902
幻想	-2903
才会	-2904
皇后	-2905
称呼	-2906
老板	-2907
肯定	-2908
财政	-2909
辞职	-2910
达成	-2911
释放	-2912
的存在	-2913
的表达	-2914
的语气	-2915
荒谬的	-2916
清华大学	-2917
社会主义	-2918
▁2009	-2919
4,	-2920
ry	-2921
做梦	-2922
冷静	-2923
分之	-2924
势力	-2925
引申	-2926
授予	-2927
探讨	-2928
改善	-2929
消灭	-2930
百年	-2931
社交	-2932
立即	-2933
约为	-2934
级的	-2935
网路	-2936
路易	-2937
题目	-2938
生死簿	-2939
这里用	-2940
▁2018	-2941
也可以理解为	-2942
是一种幽默的	-2943
▁这句话运用了	-2944
。。	-2945
《》	-2946
一千	-2947
下去	-2948
同盟	-2949
吸血	-2950
工厂	-2951
投降	-2952
旅客	-2953
王的	-2954
生气	-2955
确认	-2956
张专辑	-2957
是一颗	-2958
来形容	-2959
se	-2960
一座	-2961
亿元	-2962
十五	-2963
南北	-2964
尝试	-2965
工人	-2966
市区	-2967
当年	-2968
损失	-2969
是我	-2970
最多	-2971
法兰	-2972
百万	-2973
纷纷	-2974
警告	-2975
资金	-2976
-21	-2977
候选	-2978
大使	-2979
天堂	-2980
夫妻	-2981
子和	-2982
字的	-2983
布鲁	-2984
形态	-2985
校长	-2986
比利	-2987
毫无	-2988
现今	-2989
的心	-2990
直径	-2991
部的	-2992
if	-2993
ok	-2994
▁4	-2995
军的	-2996
农村	-2997
吸烟	-2998
意见	-2999
才是	-3000
提名	-3001
收购	-3002
期的	-3003
水域	-3004
自行	-3005
120	-3006
our	-3007
▁Ch	-3008
1980	-3009
85	-3010
BC	-3011
▁女	-3012
一半	-3013
二级	-3014
众多	-3015
优秀	-3016
保险	-3017
周末	-3018
增添	-3019
对着	-3020
寻求	-3021
并无	-3022
措施	-3023
此句	-3024
礼物	-3025
进了	-3026
重大	-3027
队伍	-3028
(,)	-3029
参加了	-3030
作出	-3031
例子	-3032
依据	-3033
加州	-3034
替换	-3035
浪费	-3036
的头	-3037
飓风	-3038
鱼类	-3039
一个是	-3040
的情节	-3041
网络上	-3042
资本家	-3043
奥林匹克	-3044
-0	-3045
主动	-3046
会被	-3047
光明	-3048
内阁	-3049
发光	-3050
围绕	-3051
圣经	-3052
尚书	-3053
杀害	-3054
来了	-3055
死者	-3056
汉朝	-3057
ran	-3058
出版社	-3059
台北市	-3060
垃圾桶	-3061
开玩笑	-3062
来表达	-3063
▁2008	-3064
ph	-3065
中间	-3066
保安	-3067
合成	-3068
地点	-3069
情侣	-3070
扩大	-3071
拉丁	-3072
机制	-3073
率为	-3074
石油	-3075
贵族	-3076
转换	-3077
ast	-3078
世界杯	-3079
举行的	-3080
是一句	-3081
行为的	-3082
误解为	-3083
自相矛盾	-3084
.3	-3085
▁句	-3086
▁高	-3087
一切	-3088
万元	-3089
上面	-3090
不着	-3091
之处	-3092
发售	-3093
地震	-3094
大多	-3095
大致	-3096
智慧	-3097
死刑	-3098
西洋	-3099
认识	-3100
走了	-3101
ist	-3102
有两个	-3103
indows	-3104
73	-3105
||	-3106
不在	-3107
之子	-3108
书籍	-3109
做的	-3110
出道	-3111
化石	-3112
延伸	-3113
开头	-3114
情境	-3115
报导	-3116
明治	-3117
通讯	-3118
?”“	-3119
事实上	-3120
吸血鬼	-3121
的名称	-3122
表现了	-3123
▁这里用	-3124
▁食人族	-3125
▁这个笑话	-3126
▁这句话以	-3127
互相	-3128
优势	-3129
保罗	-3130
卫星	-3131
双向	-3132
团队	-3133
如下	-3134
定为	-3135
对外	-3136
我就	-3137
方块	-3138
是有	-3139
环保	-3140
编辑	-3141
被人	-3142
都被	-3143
量的	-3144
首府	-3145
鼻子	-3146
ity	-3147
人民币	-3148
改名为	-3149
没有人	-3150
▁小行星	-3151
中共中央	-3152
ev	-3153
史上	-3154
商品	-3155
埃及	-3156
师傅	-3157
执导	-3158
政协	-3159
游客	-3160
牠们	-3161
维奇	-3162
药物	-3163
行的	-3164
适合	-3165
鼓励	-3166
传统的	-3167
制造出	-3168
发生了	-3169
AT	-3170
一只	-3171
丈夫	-3172
以外	-3173
件事	-3174
伊朗	-3175
加强	-3176
加油	-3177
吃饭	-3178
在他	-3179
场的	-3180
抗议	-3181
文的	-3182
率领	-3183
而易	-3184
面前	-3185
eam	-3186
揭示了	-3187
时期的	-3188
未来的	-3189
组成的	-3190
”:	-3191
会上	-3192
你们	-3193
做人	-3194
增强	-3195
姓氏	-3196
尔特	-3197
忘记	-3198
斯塔	-3199
月球	-3200
来越	-3201
留下	-3202
登陆	-3203
知县	-3204
认可	-3205
走向	-3206
这部	-3207
星等为	-3208
是德国	-3209
1996	-3210
中的一个	-3211
这是一种	-3212
,‘	-3213
5,	-3214
▁中	-3215
三国	-3216
不知	-3217
东海	-3218
为止	-3219
享受	-3220
办事	-3221
成分	-3222
效率	-3223
最近	-3224
样的	-3225
深刻	-3226
行人	-3227
让他	-3228
ain	-3229
可以在	-3230
听起来	-3231
博士学位	-3232
就变成了	-3233
明朝政治人物	-3234
TV	-3235
两次	-3236
严格	-3237
农民	-3238
名单	-3239
唯物	-3240
形状	-3241
期待	-3242
起义	-3243
违法	-3244
实际的	-3245
想不到	-3246
的象征	-3247
说的是	-3248
越来越	-3249
问题的	-3250
',	-3251
、、	-3252
依赖	-3253
升级	-3254
呈现	-3255
大奖	-3256
对抗	-3257
将在	-3258
少女	-3259
比例	-3260
沿海	-3261
消防	-3262
称作	-3263
编码	-3264
都市	-3265
集体	-3266
领事	-3267
不合理	-3268
届全国	-3269
是一座	-3270
是没有	-3271
普通话	-3272
更名为	-3273
eg	-3274
上下	-3275
乡试	-3276
亚目	-3277
但却	-3278
全面	-3279
办理	-3280
喜剧	-3281
坐标	-3282
奖项	-3283
岁时	-3284
很难	-3285
情报	-3286
深圳	-3287
负面	-3288
近年	-3289
黑人	-3290
:30	-3291
ert	-3292
ntr	-3293
义大利	-3294
1970	-3295
.1	-3296
从此	-3297
克林	-3298
剧情	-3299
各个	-3300
放大	-3301
玩具	-3302
球会	-3303
的口	-3304
网友	-3305
脑子	-3306
西游	-3307
通道	-3308
靠近	-3309
大规模	-3310
登进士	-3311
。2013	-3312
也能	-3313
传达	-3314
但他	-3315
出战	-3316
前者	-3317
困境	-3318
在其	-3319
复活	-3320
大小	-3321
对此	-3322
当局	-3323
我在	-3324
拉屎	-3325
智力	-3326
替代	-3327
的诗	-3328
私人	-3329
称之	-3330
罪犯	-3331
行业	-3332
裁判	-3333
装备	-3334
足够	-3335
通车	-3336
难度	-3337
ack	-3338
rou	-3339
▁st	-3340
。2.	-3341
一方面	-3342
其实是	-3343
幽默和	-3344
▁意思是	-3345
▁这句话将	-3346
州的一个市镇	-3347
幽默地表达了	-3348
.2	-3349
.4	-3350
分的	-3351
删除	-3352
台风	-3353
和不	-3354
哈尔	-3355
器官	-3356
处的	-3357
宁波	-3358
安德	-3359
师范	-3360
年纪	-3361
形目	-3362
是无	-3363
更为	-3364
树人	-3365
栽培	-3366
气体	-3367
男女	-3368
给我	-3369
视力	-3370
领土	-3371
ong	-3372
可以指	-3373
大学的	-3374
的重要性	-3375
。2010	-3376
87	-3377
一下	-3378
上述	-3379
乾隆	-3380
保证	-3381
免费	-3382
分开	-3383
北海	-3384
历任	-3385
启用	-3386
多了	-3387
巨大	-3388
悲伤	-3389
意料	-3390
时任	-3391
李白	-3392
极度	-3393
电车	-3394
种子	-3395
经理	-3396
考古	-3397
顾问	-3398
黄金	-3399
,),	-3400
est	-3401
有很多	-3402
每个人	-3403
美国人	-3404
苏格兰	-3405
89	-3406
AC	-3407
▁「	-3408
一生	-3409
六年	-3410
十月	-3411
即将	-3412
台南	-3413
四十	-3414
女神	-3415
家的	-3416
战后	-3417
更新	-3418
深入	-3419
生成	-3420
竞技	-3421
萝卜	-3422
部落	-3423
ant	-3424
人们对	-3425
意义的	-3426
描绘了	-3427
是香港	-3428
的态度	-3429
系统的	-3430
io	-3431
▁g	-3432
印尼	-3433
变形	-3434
和对	-3435
大队	-3436
岛屿	-3437
开通	-3438
志愿	-3439
惩罚	-3440
房屋	-3441
抵达	-3442
派遣	-3443
穿越	-3444
舞台	-3445
芬兰	-3446
重量	-3447
预测	-3448
预警	-3449
魔法	-3450
联合国	-3451
趣味性	-3452
▁2007	-3453
86	-3454
ug	-3455
人性	-3456
县的	-3457
太监	-3458
家中	-3459
接着	-3460
敌人	-3461
斯克	-3462
新生	-3463
旗下	-3464
沉默	-3465
球季	-3466
签署	-3467
美术	-3468
全世界	-3469
的声音	-3470
1-	-3471
CD	-3472
ib	-3473
不太	-3474
人质	-3475
假的	-3476
山西	-3477
并入	-3478
战略	-3479
泰国	-3480
粒子	-3481
长沙	-3482
与现实	-3483
巨大的	-3484
显而易	-3485
1992	-3486
科的其中一种	-3487
(;	-3488
一旦	-3489
上是	-3490
做出	-3491
分数	-3492
吕布	-3493
大三	-3494
大厦	-3495
天皇	-3496
女孩	-3497
婚姻	-3498
导游	-3499
小红	-3500
山区	-3501
已被	-3502
文献	-3503
有个	-3504
汉字	-3505
派出	-3506
空中	-3507
肌肉	-3508
说到	-3509
里亚	-3510
阻止	-3511
DNA	-3512
分别是	-3513
受欢迎	-3514
尤其是	-3515
的城镇	-3516
相关的	-3517
1010	-3518
显而易见	-3519
[[	-3520
以南	-3521
便是	-3522
公安	-3523
台词	-3524
女友	-3525
如同	-3526
已有	-3527
排除	-3528
放在	-3529
敏感	-3530
朝廷	-3531
法案	-3532
答题	-3533
营运	-3534
课堂	-3535
资产	-3536
逃避	-3537
食品	-3538
餐厅	-3539
▁zh	-3540
会不会	-3541
的儿子	-3542
的荒谬	-3543
▁2006	-3544
实际上是在	-3545
71	-3546
不懂	-3547
中被	-3548
事故	-3549
住民	-3550
作案	-3551
关联	-3552
判处	-3553
压迫	-3554
受害	-3555
夏天	-3556
多活	-3557
大幅	-3558
孤独	-3559
所属	-3560
掌握	-3561
改成	-3562
火箭	-3563
热度	-3564
的第	-3565
程式	-3566
节日	-3567
转移	-3568
颁奖	-3569
ter	-3570
▁通常	-3571
下来的	-3572
与其他	-3573
会导致	-3574
的发展	-3575
都没有	-3576
▁l	-3577
三人	-3578
上市	-3579
包围	-3580
华人	-3581
古典	-3582
家里	-3583
房间	-3584
拆台	-3585
拼音	-3586
提醒	-3587
擅长	-3588
淡水	-3589
特色	-3590
监督	-3591
考研	-3592
认真	-3593
预期	-3594
▁原句	-3595
他们在	-3596
以上的	-3597
前半句	-3598
比赛中	-3599
▁王警官	-3600
因果关系	-3601
这里用了	-3602
▁这里是指	-3603
。2008	-3604
制造了一种	-3605
这句话通过	-3606
▁这句话是对	-3607
制造幽默效果	-3608
▁这句话通过将	-3609
]]	-3610
▁v	-3611
一片	-3612
冬天	-3613
分离	-3614
后期	-3615
唐朝	-3616
幸运	-3617
愿望	-3618
战国	-3619
排泄	-3620
提前	-3621
撤销	-3622
流量	-3623
简化	-3624
紧张	-3625
话题	-3626
重视	-3627
真实的	-3628
美国的	-3629
代表大会	-3630
IC	-3631
不够	-3632
中最	-3633
之意	-3634
九年	-3635
出席	-3636
参考	-3637
平原	-3638
平衡	-3639
很大	-3640
律师	-3641
接替	-3642
期望	-3643
汉族	-3644
用以	-3645
的山	-3646
给他	-3647
脖子	-3648
西安	-3649
说出	-3650
边界	-3651
非法	-3652
也可能	-3653
也没有	-3654
毕业后	-3655
这个人	-3656
ea	-3657
iz	-3658
一人	-3659
他还	-3660
会长	-3661
克拉	-3662
兼任	-3663
列表	-3664
在大	-3665
埋葬	-3666
学科	-3667
审查	-3668
就有	-3669
打算	-3670
搜索	-3671
短暂	-3672
艺人	-3673
闻名	-3674
马拉	-3675
800	-3676
亿美元	-3677
以一种	-3678
四川省	-3679
委书记	-3680
是一部	-3681
西南部	-3682
错误的	-3683
通常是指	-3684
上午	-3685
也要	-3686
假装	-3687
冬季	-3688
原则	-3689
它是	-3690
审判	-3691
忽略	-3692
战场	-3693
步枪	-3694
毛泽	-3695
火山	-3696
见到	-3697
规律	-3698
贵州	-3699
跟随	-3700
长城	-3701
龙江	-3702
ang	-3703
ive	-3704
▁虽然	-3705
一系列	-3706
吉尼斯	-3707
在香港	-3708
毛泽东	-3709
生命的	-3710
目的是	-3711
遇到了	-3712
通常用于	-3713
sp	-3714
义词	-3715
从来	-3716
加盟	-3717
动词	-3718
勇气	-3719
回收	-3720
安徽	-3721
巨人	-3722
指纹	-3723
生存	-3724
颠倒	-3725
(14	-3726
...	-3727
分布在	-3728
北京市	-3729
和社会	-3730
基金会	-3731
每一个	-3732
的机会	-3733
科学院	-3734
▁6	-3735
之战	-3736
亦是	-3737
参谋	-3738
另有	-3739
周期	-3740
培养	-3741
客户	-3742
影视	-3743
恶心	-3744
次年	-3745
江西	-3746
类的	-3747
而成	-3748
超越	-3749
选为	-3750
都没	-3751
人类的	-3752
反映出	-3753
的人物	-3754
类似于	-3755
初音未来	-3756
MA	-3757
▁Y	-3758
分配	-3759
制定	-3760
干净	-3761
恐龙	-3762
扩展	-3763
收到	-3764
旋转	-3765
本人	-3766
某人	-3767
法庭	-3768
灭绝	-3769
电池	-3770
站在	-3771
诗人	-3772
跳楼	-3773
ich	-3774
其中的	-3775
天文学	-3776
建立了	-3777
成功的	-3778
成年人	-3779
的误解	-3780
考试中	-3781
解释为	-3782
长时间	-3783
(2011	-3784
中国国民党	-3785
eb	-3786
ff	-3787
▁金	-3788
两位	-3789
他也	-3790
八年	-3791
出人	-3792
列入	-3793
十三	-3794
吃人	-3795
君主	-3796
地质	-3797
夫卡	-3798
对其	-3799
情人	-3800
排列	-3801
收费	-3802
是为	-3803
暂时	-3804
月至	-3805
机的	-3806
用途	-3807
电气	-3808
男生	-3809
解散	-3810
防御	-3811
同一个	-3812
天文台	-3813
提供了	-3814
是什么	-3815
1993	-3816
国际机场	-3817
Go	-3818
IP	-3819
▁巴	-3820
▁长	-3821
不如	-3822
他与	-3823
刺史	-3824
厕所	-3825
大众	-3826
就在	-3827
带领	-3828
战胜	-3829
指定	-3830
方的	-3831
既指	-3832
气压	-3833
污染	-3834
海峡	-3835
玛丽	-3836
甘肃	-3837
编剧	-3838
萨克	-3839
认同	-3840
语法	-3841
阳关	-3842
隐藏	-3843
面临	-3844
▁10	-3845
中国人	-3846
工程师	-3847
市中心	-3848
政府的	-3849
死亡的	-3850
比喻成	-3851
相结合	-3852
称之为	-3853
,198	-3854
是俄罗斯	-3855
讽刺意味	-3856
ld	-3857
▁h	-3858
仿佛	-3859
供应	-3860
力学	-3861
南非	-3862
占地	-3863
和谐	-3864
夫人	-3865
干部	-3866
年初	-3867
恋爱	-3868
明确	-3869
正是	-3870
死宅	-3871
河水	-3872
绝地	-3873
邻近	-3874
都能	-3875
都要	-3876
▁老王	-3877
▁这句	-3878
与现代	-3879
东南部	-3880
国家队	-3881
大学生	-3882
小明的	-3883
方面的	-3884
的小明	-3885
。190	-3886
巧妙地将	-3887
没有任何	-3888
幽默和讽刺	-3889
诙谐的效果	-3890
83	-3891
BS	-3892
uc	-3893
一百	-3894
为其	-3895
修辞	-3896
具备	-3897
冒险	-3898
利的	-3899
单词	-3900
听到	-3901
埃尔	-3902
塑料	-3903
外语	-3904
安慰	-3905
开设	-3906
当成	-3907
德军	-3908
撞击	-3909
撰写	-3910
曹丕	-3911
本是	-3912
法令	-3913
流传	-3914
渴望	-3915
牛顿	-3916
看法	-3917
随即	-3918
首歌	-3919
驱逐	-3920
一个月	-3921
南极洲	-3922
);	-3923
mm	-3924
▁拉	-3925
▁曾	-3926
▁而	-3927
代理	-3928
做了	-3929
号的	-3930
在该	-3931
天体	-3932
如来	-3933
射击	-3934
弟弟	-3935
描写	-3936
改造	-3937
日报	-3938
海外	-3939
特点	-3940
犯人	-3941
理想	-3942
生态	-3943
神秘	-3944
立方	-3945
诅咒	-3946
高校	-3947
50%	-3948
东北部	-3949
很多人	-3950
时代的	-3951
物理学	-3952
西游记	-3953
位于中国	-3954
84	-3955
SS	-3956
中毒	-3957
书法	-3958
亚历	-3959
利斯	-3960
卡斯	-3961
夜晚	-3962
大区	-3963
尔的	-3964
展览	-3965
斯林	-3966
本应	-3967
热爱	-3968
玫瑰	-3969
理事	-3970
直隶	-3971
突显	-3972
职位	-3973
职责	-3974
设于	-3975
起了	-3976
青春	-3977
频繁	-3978
食用	-3979
严重的	-3980
山东省	-3981
日本人	-3982
极端的	-3983
现在的	-3984
被视为	-3985
,5	-3986
ix	-3987
▁5	-3988
▁对	-3989
▁火	-3990
下一	-3991
习性	-3992
二字	-3993
亲王	-3994
保守	-3995
修建	-3996
再见	-3997
出场	-3998
印象	-3999
厘米	-4000
处决	-4001
居然	-4002
康熙	-4003
恐惧	-4004
特拉	-4005
真人	-4006
给你	-4007
遭遇	-4008
陆续	-4009
雪花	-4010
end	-4011
万美元	-4012
和其他	-4013
广东人	-4014
强烈的	-4015
游戏中	-4016
的发音	-4017
蛋白质	-4018
▁a	-4019
。(	-4020
书院	-4021
人与	-4022
创建	-4023
回忆	-4024
并以	-4025
当场	-4026
得很	-4027
截至	-4028
执政	-4029
概率	-4030
河畔	-4031
流星	-4032
精灵	-4033
老虎	-4034
试卷	-4035
诗意	-4036
麦克	-4037
off	-4038
▁香港	-4039
丰富的	-4040
发生的	-4041
平方米	-4042
有趣的	-4043
生长于	-4044
的化学	-4045
的生活	-4046
秘书长	-4047
中的角色	-4048
属的植物	-4049
.6	-4050
Jo	-4051
三天	-4052
事变	-4053
剧本	-4054
十四	-4055
协商	-4056
哥哥	-4057
太多	-4058
奔赴	-4059
实力	-4060
家人	-4061
接任	-4062
歧义	-4063
洛伊	-4064
疑问	-4065
相近	-4066
礼貌	-4067
紧急	-4068
红灯	-4069
舞蹈	-4070
规范	-4071
退休	-4072
配音	-4073
长江	-4074
内蒙古	-4075
分别为	-4076
可以被	-4077
江苏省	-4078
设计的	-4079
1945	-4080
这是一个	-4081
吉尼斯世界	-4082
描述了一个	-4083
▁7	-4084
书的	-4085
二者	-4086
内战	-4087
她在	-4088
子女	-4089
曹植	-4090
荣誉	-4091
融合	-4092
路人	-4093
运作	-4094
1.5	-4095
主要是	-4096
实验室	-4097
成立的	-4098
更多的	-4099
的孩子	-4100
福建人	-4101
西北部	-4102
黑龙江	-4103
1995	-4104
也是一种	-4105
可以通过	-4106
的小行星	-4107
会试	-4108
出发	-4109
单纯	-4110
多为	-4111
大便	-4112
大桥	-4113
将领	-4114
局长	-4115
得了	-4116
我一	-4117
月初	-4118
本地	-4119
桂林	-4120
活的	-4121
视角	-4122
道的	-4123
邻居	-4124
21-	-4125
两个字	-4126
主要的	-4127
人们在	-4128
公元前	-4129
化合物	-4130
后面的	-4131
奥斯卡	-4132
或讽刺	-4133
比喻为	-4134
的一些	-4135
82	-4136
oy	-4137
▁8	-4138
▁圣	-4139
一级	-4140
一边	-4141
两国	-4142
了他	-4143
他被	-4144
使人	-4145
延长	-4146
强化	-4147
彻底	-4148
怀孕	-4149
患有	-4150
手的	-4151
日治	-4152
昆虫	-4153
波斯	-4154
称号	-4155
绑匪	-4156
覆盖	-4157
队员	-4158
陕西	-4159
马尔	-4160
180	-4161
ame	-4162
亚历山	-4163
别人的	-4164
所以我	-4165
特别是	-4166
的同时	-4167
绝地求	-4168
能不能	-4169
位于该省	-4170
逻辑上的	-4171
(2001	-4172
的表达方式	-4173
营造出一种	-4174
ah	-4175
一辈	-4176
争气	-4177
二人	-4178
体验	-4179
划分	-4180
则在	-4181
前面	-4182
区间	-4183
发挥	-4184
困惑	-4185
引种	-4186
录音	-4187
很少	-4188
新鲜	-4189
早年	-4190
杜甫	-4191
武帝	-4192
段子	-4193
火车	-4194
燃料	-4195
独特	-4196
眼镜	-4197
示威	-4198
票房	-4199
突出	-4200
耳机	-4201
联想	-4202
诺曹	-4203
辽宁	-4204
进党	-4205
遗传	-4206
酋长	-4207
鼻毛	-4208
ont	-4209
候选人	-4210
学生的	-4211
小男孩	-4212
的事物	-4213
▁1.“	-4214
的无奈和	-4215
监考老师	-4216
而不是指	-4217
这个笑话	-4218
道德绑架	-4219
▁这里利用了	-4220
▁这里的幽默	-4221
Windows	-4222
CP	-4223
ER	-4224
▁于	-4225
▁据	-4226
▁白	-4227
丹麦	-4228
亚军	-4229
亲自	-4230
伤亡	-4231
使其	-4232
剧院	-4233
占据	-4234
参选	-4235
员的	-4236
大街	-4237
姓名	-4238
学士	-4239
御史	-4240
斗争	-4241
日于	-4242
桃园	-4243
的乐	-4244
的后	-4245
网球	-4246
辛苦	-4247
陆地	-4248
两个人	-4249
其他的	-4250
嫌疑人	-4251
年美国	-4252
建筑物	-4253
的国家	-4254
穆斯林	-4255
艺术家	-4256
被认为	-4257
人口普查	-4258
▁n	-4259
▁南	-4260
不开	-4261
克莱	-4262
即可	-4263
只剩	-4264
导弹	-4265
总是	-4266
旅行	-4267
时会	-4268
水库	-4269
相应	-4270
积分	-4271
财务	-4272
身高	-4273
送去	-4274
上海市	-4275
在中文	-4276
失去了	-4277
尼亚州	-4278
所有人	-4279
自己在	-4280
习性不明	-4281
生活习性不明	-4282
.9	-4283
ID	-4284
OS	-4285
▁张	-4286
不用	-4287
伙伴	-4288
保障	-4289
反复	-4290
器的	-4291
城区	-4292
复兴	-4293
大脑	-4294
好汉	-4295
小人	-4296
局的	-4297
年到	-4298
延续	-4299
意在	-4300
成熟	-4301
服从	-4302
格为	-4303
海口	-4304
海底	-4305
灭亡	-4306
装甲	-4307
赛马	-4308
长官	-4309
阶级	-4310
▁to	-4311
。15	-4312
严肃的	-4313
任命为	-4314
体现了	-4315
制作的	-4316
影响力	-4317
所以被	-4318
由人工	-4319
▁与	-4320
▁刘	-4321
三世	-4322
以北	-4323
任职	-4324
分支	-4325
初中	-4326
判决	-4327
害的	-4328
山的	-4329
当前	-4330
性能	-4331
我很	-4332
抵抗	-4333
挪威	-4334
摧毁	-4335
摩西	-4336
显著	-4337
杰克	-4338
燃烧	-4339
牺牲	-4340
的日	-4341
的机	-4342
确保	-4343
神父	-4344
称赞	-4345
缅甸	-4346
脏话	-4347
被打	-4348
边缘	-4349
退出	-4350
关系的	-4351
现实中	-4352
的位置	-4353
的特征	-4354
研究院	-4355
第二天	-4356
引种栽培	-4357
▁2005	-4358
由人工引种栽培	-4359
-2	-4360
▁原	-4361
▁黄	-4362
不带	-4363
借此	-4364
军在	-4365
凶手	-4366
北美	-4367
及时	-4368
合约	-4369
场所	-4370
妇女	-4371
岛上	-4372
布拉	-4373
才有	-4374
排行	-4375
接收	-4376
数的	-4377
杭州	-4378
校园	-4379
正面	-4380
活跃	-4381
石灰	-4382
给人	-4383
群众	-4384
试验	-4385
院校	-4386
预计	-4387
"),	-4388
ens	-4389
主义者	-4390
原住民	-4391
原本是	-4392
独特的	-4393
结合在一起	-4394
第二次世界大战	-4395
ll	-4396
传染	-4397
克里	-4398
入口	-4399
升华	-4400
只好	-4401
场合	-4402
忘了	-4403
成本	-4404
手中	-4405
时光	-4406
注册	-4407
火力	-4408
腐败	-4409
蓝色	-4410
过了	-4411
遗体	-4412
ear	-4413
one	-4414
刽子手	-4415
叙利亚	-4416
复杂性	-4417
对方的	-4418
提出的	-4419
的典故	-4420
莫斯科	-4421
董事长	-4422
还没有	-4423
哥伦比亚	-4424
形成一种	-4425
形成对比	-4426
热带风暴	-4427
AI	-4428
下班	-4429
不见	-4430
两岸	-4431
五月	-4432
修复	-4433
全家	-4434
公鸡	-4435
内行	-4436
军区	-4437
原始	-4438
原理	-4439
回国	-4440
图案	-4441
妖精	-4442
密码	-4443
常用	-4444
开车	-4445
征服	-4446
支付	-4447
是被	-4448
本书	-4449
氧气	-4450
烦恼	-4451
界的	-4452
的总	-4453
素食	-4454
获胜	-4455
证券	-4456
诸侯	-4457
逆转	-4458
阿里	-4459
包含了	-4460
台湾的	-4461
大西洋	-4462
就不会	-4463
的反思	-4464
的变化	-4465
1900	-4466
▁for	-4467
三月	-4468
两天	-4469
交给	-4470
从众	-4471
们的	-4472
加以	-4473
味道	-4474
在一	-4475
坟墓	-4476
尔夫	-4477
性地	-4478
感谢	-4479
收集	-4480
文艺	-4481
检察	-4482
清晰	-4483
烽火	-4484
熟悉	-4485
的风	-4486
看着	-4487
组建	-4488
250	-4489
NBA	-4490
her	-4491
les	-4492
为中国	-4493
在一个	-4494
是指在	-4495
的音乐	-4496
骂人的	-4497
1989	-4498
作为一个	-4499
国民政府	-4500
西班牙语	-4501
。2016	-4502
"(	-4503
(6	-4504
ng	-4505
’。	-4506
上阵	-4507
下令	-4508
乙己	-4509
佛罗	-4510
则为	-4511
原名	-4512
发酵	-4513
吉他	-4514
听力	-4515
女生	-4516
宣称	-4517
布尔	-4518
影像	-4519
承诺	-4520
抽象	-4521
斯顿	-4522
无力	-4523
既然	-4524
柠檬	-4525
淘汰	-4526
熬夜	-4527
纳入	-4528
线上	-4529
船只	-4530
谴责	-4531
这场	-4532
这段	-4533
颁发	-4534
高丽	-4535
▁我的	-4536
克里斯	-4537
在某些	-4538
孔乙己	-4539
斯拉夫	-4540
最多的	-4541
的特性	-4542
是意大利	-4543
罗马尼亚	-4544
▁这是一种	-4545
LA	-4546
qu	-4547
▁陈	-4548
一职	-4549
两年	-4550
俄国	-4551
俗称	-4552
入选	-4553
厨狂	-4554
双标	-4555
口语	-4556
吉尔	-4557
哦哦	-4558
城堡	-4559
奶奶	-4560
寿衣	-4561
开了	-4562
往来	-4563
得名	-4564
持有	-4565
来看	-4566
极其	-4567
液体	-4568
热门	-4569
生日	-4570
生育	-4571
痛苦	-4572
线性	-4573
舍友	-4574
获取	-4575
行驶	-4576
退役	-4577
采访	-4578
140	-4579
ark	-4580
gay	-4581
ith	-4582
ver	-4583
▁小王	-4584
▁美国	-4585
不会吧	-4586
双厨狂	-4587
吃什么	-4588
唯一的	-4589
的支持	-4590
睡不着	-4591
霍比特	-4592
。2.“	-4593
不合理的	-4594
双向奔赴	-4595
如来佛祖	-4596
拟人化的	-4597
热带气旋	-4598
的双关语	-4599
目前尚未	-4600
调侃自己	-4601
▁此句通过	-4602
夸张的说法	-4603
强烈的反差	-4604
本意指的是	-4605
"。	-4606
▁老	-4607
几何	-4608
出演	-4609
加拉	-4610
助理	-4611
唐代	-4612
奖励	-4613
对他	-4614
小型	-4615
带着	-4616
平面	-4617
必然	-4618
我爱	-4619
打断	-4620
摄影	-4621
本土	-4622
片段	-4623
理念	-4624
的代	-4625
的那	-4626
第八	-4627
营业	-4628
证实	-4629
较大	-4630
边境	-4631
还在	-4632
连载	-4633
遭受	-4634
ate	-4635
ric	-4636
▁re	-4637
▁一个	-4638
浙江省	-4639
的地位	-4640
的矛盾	-4641
离开了	-4642
这部分	-4643
1991	-4644
。2012	-4645
CO	-4646
PS	-4647
▁二	-4648
▁以	-4649
▁卡	-4650
▁被	-4651
为师	-4652
内地	-4653
到的	-4654
原先	-4655
回头	-4656
在了	-4657
奥尔	-4658
季节	-4659
寺庙	-4660
层面	-4661
州府	-4662
当代	-4663
总会	-4664
指的	-4665
推进	-4666
服役	-4667
渗透	-4668
港元	-4669
演化	-4670
王子	-4671
的长	-4672
祭祀	-4673
财产	-4674
醒来	-4675
高兴	-4676
ort	-4677
▁In	-4678
充满了	-4679
尼西亚	-4680
民进党	-4681
的形象	-4682
的表现	-4683
。2006	-4684
。2009	-4685
。2011	-4686
生长于海拔	-4687
目前尚未由人工引种栽培	-4688
6,	-4689
▁安	-4690
万历	-4691
下面	-4692
优点	-4693
决策	-4694
准确	-4695
出于	-4696
发作	-4697
含量	-4698
咖啡	-4699
多项	-4700
太后	-4701
幸福	-4702
瓦尔	-4703
电信	-4704
繁殖	-4705
罢工	-4706
考察	-4707
耻辱	-4708
警报	-4709
达尔	-4710
这两	-4711
通关	-4712
饥饿	-4713
160	-4714
不符合	-4715
事务所	-4716
出现的	-4717
情人节	-4718
战斗机	-4719
改编自	-4720
新生儿	-4721
是台湾	-4722
有许多	-4723
环境中	-4724
的对话	-4725
的游戏	-4726
的颜色	-4727
轰炸机	-4728
其中包括	-4729
是南极洲	-4730
米的地区	-4731
颁奖典礼	-4732
。2014	-4733
ex	-4734
▁=	-4735
一份	-4736
传递	-4737
内心	-4738
军团	-4739
勋章	-4740
古老	-4741
因其	-4742
图像	-4743
填海	-4744
定居	-4745
封为	-4746
当天	-4747
形的	-4748
德的	-4749
放射	-4750
春秋	-4751
月的	-4752
有著	-4753
未有	-4754
模特	-4755
步兵	-4756
游泳	-4757
爱的	-4758
癌症	-4759
研发	-4760
编程	-4761
网上	-4762
脱离	-4763
行医	-4764
谋杀	-4765
跳过	-4766
还原	-4767
远离	-4768
错了	-4769
马里	-4770
骑兵	-4771
ree	-4772
一句话	-4773
发动机	-4774
对自己	-4775
年夏季	-4776
相同的	-4777
詹姆斯	-4778
附近的	-4779
ight	-4780
工作人员	-4781
足球运动员	-4782
au	-4783
ep	-4784
km	-4785
sc	-4786
▁西	-4787
不幸	-4788
了两	-4789
公爵	-4790
制品	-4791
天然	-4792
已于	-4793
支流	-4794
最为	-4795
气功	-4796
洛阳	-4797
活人	-4798
答案	-4799
脑袋	-4800
萨尔	-4801
路段	-4802
透露	-4803
ock	-4804
。17	-4805
分之一	-4806
加入了	-4807
北海道	-4808
发生在	-4809
和他的	-4810
孩子的	-4811
是通过	-4812
暗示着	-4813
流行语	-4814
生殖器	-4815
的使用	-4816
的感觉	-4817
第一位	-4818
领导人	-4819
同时也是	-4820
平方千米	-4821
自然现象	-4822
,8	-4823
ew	-4824
ly	-4825
不吃	-4826
交换	-4827
会计	-4828
住在	-4829
变态	-4830
各国	-4831
向前	-4832
周年	-4833
地域	-4834
坚定	-4835
女王	-4836
孔子	-4837
手套	-4838
掌管	-4839
推荐	-4840
新竹	-4841
有不	-4842
杀手	-4843
死人	-4844
牛奶	-4845
画面	-4846
秋天	-4847
经由	-4848
绝望	-4849
舒服	-4850
被子	-4851
近代	-4852
长达	-4853
院士	-4854
顺序	-4855
频率	-4856
com	-4857
ign	-4858
▁利用	-4859
三个字	-4860
副主任	-4861
十二年	-4862
原因是	-4863
的人是	-4864
自己是	-4865
进行的	-4866
▁190	-4867
历史人物	-4868
吉尼斯世界纪录	-4869
”)	-4870
主力	-4871
他曾	-4872
但被	-4873
克尔	-4874
共享	-4875
单元	-4876
号为	-4877
合唱	-4878
吴京	-4879
吸收	-4880
国有	-4881
国道	-4882
地带	-4883
大妈	-4884
奴隶	-4885
小王	-4886
建制	-4887
徒刑	-4888
成人	-4889
斩首	-4890
波罗	-4891
海水	-4892
演奏	-4893
潜艇	-4894
科夫	-4895
笔画	-4896
等同	-4897
纳粹	-4898
辖区	-4899
陨石	-4900
()。	-4901
ect	-4902
ord	-4903
共和党	-4904
南美洲	-4905
另一种	-4906
因此有	-4907
州刺史	-4908
并不能	-4909
所谓的	-4910
机器人	-4911
班主任	-4912
的基础	-4913
的成员	-4914
的法律	-4915
类似的	-4916
造成了	-4917
play	-4918
,2010	-4919
位于该国西部	-4920
▁X	-4921
不出	-4922
不敌	-4923
为首	-4924
企图	-4925
击毙	-4926
升为	-4927
却是	-4928
后续	-4929
多重	-4930
失踪	-4931
带上	-4932
开除	-4933
我有	-4934
推测	-4935
星的	-4936
星际	-4937
本科	-4938
本站	-4939
珍珠	-4940
电器	-4941
画家	-4942
白了	-4943
的我	-4944
签约	-4945
美的	-4946
蚂蚁	-4947
身分	-4948
车祸	-4949
进口	-4950
酒吧	-4951
增添了	-4952
它们的	-4953
有两种	-4954
生活在	-4955
的比喻	-4956
下辖的一个	-4957
通常指的是	-4958
JR	-4959
。8	-4960
不来	-4961
不相	-4962
中期	-4963
享年	-4964
北魏	-4965
同日	-4966
后果	-4967
喵喵	-4968
完工	-4969
富有	-4970
小就	-4971
底层	-4972
怪气	-4973
感受	-4974
执法	-4975
抱歉	-4976
携带	-4977
条例	-4978
格式	-4979
特性	-4980
生素	-4981
省道	-4982
石头	-4983
约有	-4984
纯爱	-4985
而来	-4986
观音	-4987
让你	-4988
贝斯	-4989
较低	-4990
这项	-4991
通往	-4992
郭敬	-4993
青岛	-4994
马桶	-4995
骨髓	-4996
了这个	-4997
冷笑话	-4998
创造了	-4999
因此说	-5000
大量的	-5001
小孩子	-5002
的地区	-5003
说明了	-5004
通常会	-5005
高中生	-5006
hant	-5007
意想不到	-5008
网络文化	-5009
表达的是	-5010
不敢	-5011
也可	-5012
反问	-5013
启动	-5014
商场	-5015
困因	-5016
如今	-5017
定理	-5018
异食	-5019
想起	-5020
承担	-5021
救援	-5022
星系	-5023
柯南	-5024
柴油	-5025
桥梁	-5026
模拟	-5027
沈阳	-5028
波尔	-5029
流逝	-5030
海南	-5031
破歌	-5032
立刻	-5033
精英	-5034
节度	-5035
资助	-5036
转会	-5037
铜牌	-5038
领地	-5039
▁讽刺	-5040
。”“	-5041
人们的	-5042
冷静期	-5043
同学们	-5044
或调侃	-5045
拼多多	-5046
杀不死	-5047
比利时	-5048
的结论	-5049
的道路	-5050
的食物	-5051
皮诺曹	-5052
研究生	-5053
而闻名	-5054
联合会	-5055
达到了	-5056
都是一	-5057
1960	-5058
▁句中的	-5059
伊斯兰教	-5060
修辞手法	-5061
反映了对	-5062
垃圾分类	-5063
是西班牙	-5064
阴阳怪气	-5065
夸张的比喻	-5066
▁这里引用了	-5067
用幽默的方式	-5068
这种表达方式	-5069
▁这里的幽默在于	-5070
9,	-5071
sh	-5072
他为	-5073
倾向	-5074
到来	-5075
加利	-5076
唱歌	-5077
商人	-5078
家属	-5079
工艺	-5080
废物	-5081
弗里	-5082
弗雷	-5083
戴上	-5084
担心	-5085
新华	-5086
明的	-5087
杀了	-5088
清代	-5089
疗法	-5090
的电	-5091
看作	-5092
神论	-5093
立场	-5094
米兰	-5095
辅助	-5096
钻石	-5097
但是在	-5098
导致了	-5099
山西省	-5100
来源于	-5101
的情绪	-5102
结合起来	-5103
铁路车站	-5104
。2015	-5105
(5	-5106
(“	-5107
81	-5108
ai	-5109
。9	-5110
。「	-5111
争取	-5112
五十	-5113
交配	-5114
人才	-5115
仅仅	-5116
可是	-5117
否则	-5118
壁画	-5119
头发	-5120
子弹	-5121
孤儿	-5122
家电	-5123
寒冷	-5124
对立	-5125
无可	-5126
次数	-5127
没人	-5128
洛克	-5129
爱好	-5130
爵士	-5131
玻璃	-5132
留在	-5133
看来	-5134
维多	-5135
维护	-5136
美好	-5137
要素	-5138
语和	-5139
货运	-5140
路口	-5141
转变	-5142
软体	-5143
进而	-5144
邮政	-5145
首个	-5146
700	-5147
are	-5148
ond	-5149
公开赛	-5150
副主席	-5151
年轻人	-5152
的身份	-5153
输入法	-5154
1988	-5155
▁The	-5156
资本主义	-5157
▁2003	-5158
转的小行星	-5159
奥林匹克运动会	-5160
,)	-5161
AS	-5162
ji	-5163
▁无	-5164
一层	-5165
产物	-5166
停车	-5167
全体	-5168
动车	-5169
北市	-5170
卧底	-5171
叙事	-5172
合同	-5173
嘉靖	-5174
成果	-5175
拆除	-5176
摇滚	-5177
收视	-5178
改制	-5179
文中	-5180
文帝	-5181
构造	-5182
橙色	-5183
比尔	-5184
江南	-5185
猝死	-5186
用法	-5187
疫情	-5188
病逝	-5189
维斯	-5190
营养	-5191
被判	-5192
赫尔	-5193
起初	-5194
躺在	-5195
辐射	-5196
运河	-5197
酒精	-5198
长大	-5199
黑子	-5200
)、《	-5201
代表团	-5202
副书记	-5203
同时又	-5204
在英国	-5205
场比赛	-5206
女主角	-5207
并不会	-5208
形容词	-5209
教育部	-5210
期徒刑	-5211
来解释	-5212
的电影	-5213
精神病	-5214
象征着	-5215
起来的	-5216
领事馆	-5217
人的名字	-5218
股份有限公司	-5219
7,	-5220
▁上	-5221
不禁	-5222
借口	-5223
南海	-5224
即为	-5225
即是	-5226
参观	-5227
同名	-5228
同类	-5229
圆形	-5230
城北	-5231
对我	-5232
就把	-5233
年和	-5234
很有	-5235
愚蠢	-5236
探险	-5237
控股	-5238
攻占	-5239
欣赏	-5240
相连	-5241
码头	-5242
缺少	-5243
西兰	-5244
语句	-5245
贬低	-5246
这句	-5247
销量	-5248
阳光	-5249
骑士	-5250
”,“	-5251
▁15	-5252
▁中国	-5253
出一个	-5254
完整的	-5255
文化大	-5256
特定的	-5257
的目的	-5258
第一名	-5259
经济学	-5260
误以为	-5261
造成的	-5262
1985	-5263
航空公司	-5264
▁好	-5265
不适	-5266
交汇	-5267
人被	-5268
北平	-5269
升任	-5270
单一	-5271
叛乱	-5272
后半	-5273
回家	-5274
均为	-5275
奶茶	-5276
尼克	-5277
已知	-5278
布置	-5279
开幕	-5280
异常	-5281
强制	-5282
木马	-5283
湖泊	-5284
相遇	-5285
站的	-5286
许愿	-5287
译为	-5288
通用	-5289
里有	-5290
隶属	-5291
韭菜	-5292
ure	-5293
wor	-5294
▁12	-5295
之前的	-5296
但因为	-5297
使用者	-5298
其他人	-5299
复杂的	-5300
打破了	-5301
殖民地	-5302
的一条	-5303
的人格	-5304
的歌曲	-5305
联想到	-5306
设计师	-5307
现代社会	-5308
的方式来	-5309
。2007	-5310
委员会委员	-5311
自己的名字	-5312
AM	-5313
AR	-5314
三星	-5315
上方	-5316
中也	-5317
余光	-5318
促进	-5319
元帅	-5320
创始	-5321
卡拉	-5322
即位	-5323
厘头	-5324
听说	-5325
回归	-5326
国外	-5327
地形	-5328
外界	-5329
太守	-5330
家庄	-5331
巡回	-5332
并由	-5333
录影	-5334
探测	-5335
推广	-5336
改进	-5337
物体	-5338
破案	-5339
米至	-5340
罗德	-5341
见于	-5342
车上	-5343
镇区	-5344
除此	-5345
风险	-5346
高地	-5347
170	-5348
一部分	-5349
形容为	-5350
成立后	-5351
日开始	-5352
本身就	-5353
特洛伊	-5354
的缩写	-5355
重金属	-5356
ment	-5357
人民代表大会	-5358
AN	-5359
Ar	-5360
aw	-5361
▁古	-5362
▁狗	-5363
一块	-5364
不变	-5365
仅有	-5366
代谢	-5367
内存	-5368
取了	-5369
告知	-5370
咨询	-5371
在新	-5372
处境	-5373
她们	-5374
就被	-5375
差距	-5376
应当	-5377
开办	-5378
改称	-5379
格拉	-5380
此次	-5381
没能	-5382
沿岸	-5383
溶液	-5384
激动	-5385
牵引	-5386
猫咪	-5387
登上	-5388
的车	-5389
盲人	-5390
种类	-5391
绝育	-5392
航班	-5393
英尺	-5394
誉为	-5395
评估	-5396
谚语	-5397
赤道	-5398
连任	-5399
途中	-5400
香蕉	-5401
Int	-5402
”),	-5403
▁对于	-5404
地球的	-5405
太阳的	-5406
奥运会	-5407
效力于	-5408
日正式	-5409
的氛围	-5410
的部分	-5411
相似性	-5412
矛盾的	-5413
青少年	-5414
Al	-5415
▁东	-5416
▁周	-5417
三大	-5418
个体	-5419
他于	-5420
他说	-5421
传媒	-5422
决议	-5423
刚刚	-5424
协调	-5425
向日	-5426
哈哈	-5427
响应	-5428
天使	-5429
密切	-5430
寒假	-5431
寿司	-5432
床上	-5433
开展	-5434
引进	-5435
扩张	-5436
斯德	-5437
新一	-5438
月在	-5439
权威	-5440
李宁	-5441
河道	-5442
牵牛	-5443
猫有	-5444
现有	-5445
蝌蚪	-5446
装饰	-5447
该国	-5448
赛中	-5449
身亡	-5450
阳县	-5451
饮食	-5452
man	-5453
▁另外	-5454
▁台湾	-5455
传说中	-5456
去世后	-5457
取得了	-5458
植物人	-5459
的名言	-5460
级联赛	-5461
1950	-5462
ogle	-5463
ount	-5464
亚历山大	-5465
海绵宝宝	-5466
表现出对	-5467
州负责管辖	-5468
▁9	-5469
▁唐	-5470
三种	-5471
不端	-5472
主流	-5473
借由	-5474
分区	-5475
刺激	-5476
却被	-5477
句式	-5478
吉林	-5479
喜爱	-5480
多样	-5481
天王	-5482
天线	-5483
女鬼	-5484
好处	-5485
定期	-5486
徐公	-5487
微软	-5488
德华	-5489
战队	-5490
收藏	-5491
早上	-5492
暗含	-5493
曾于	-5494
木乃	-5495
极为	-5496
根廷	-5497
江户	-5498
温暖	-5499
电梯	-5500
离子	-5501
科幻	-5502
美人	-5503
考验	-5504
解剖	-5505
论坛	-5506
读音	-5507
费用	-5508
身边	-5509
ier	-5510
▁我把	-5511
办事处	-5512
发行的	-5513
向日葵	-5514
学生在	-5515
理解成	-5516
的模式	-5517
综合征	-5518
雪公主	-5519
文字游戏	-5520
电视节目	-5521
制造出一种	-5522
的字面意思	-5523
,'	-5524
6.	-5525
乌斯	-5526
事后	-5527
便利	-5528
八十	-5529
出售	-5530
创新	-5531
别吧	-5532
发人	-5533
口号	-5534
叫声	-5535
地说	-5536
基隆	-5537
失望	-5538
巴尔	-5539
常委	-5540
强大	-5541
战士	-5542
报纸	-5543
拉肚	-5544
推翻	-5545
服装	-5546
望远	-5547
欲望	-5548
每日	-5549
毒品	-5550
派的	-5551
清明	-5552
演技	-5553
澄清	-5554
烧焦	-5555
特里	-5556
狼性	-5557
王位	-5558
秘鲁	-5559
第九	-5560
维修	-5561
萨斯	-5562
被抓	-5563
认证	-5564
遵守	-5565
银牌	-5566
雷斯	-5567
110	-5568
Ste	-5569
▁使用	-5570
一开始	-5571
东京都	-5572
主人公	-5573
唯物论	-5574
坐标为	-5575
存在于	-5576
工作的	-5577
异食癖	-5578
当地的	-5579
方便面	-5580
最后的	-5581
望远镜	-5582
木乃伊	-5583
来讽刺	-5584
的作用	-5585
的荒诞	-5586
的过度	-5587
罗伯特	-5588
而是指	-5589
足球队	-5590
里的水	-5591
▁通过将	-5592
字面上的	-5593
形成反差	-5594
笑点在于	-5595
表达一种	-5596
诸葛亮的	-5597
选择困难	-5598
是一个成语	-5599
是一种幽默	-5600
▁这里指的是	-5601
产生幽默效果	-5602
字面意义上的	-5603
物理意义上的	-5604
幽默的方式表达	-5605
HR	-5606
na	-5607
pt	-5608
▁林	-5609
上去	-5610
两名	-5611
两面	-5612
中将	-5613
京都	-5614
亲密	-5615
任意	-5616
体制	-5617
则有	-5618
剧场	-5619
南昌	-5620
原有	-5621
地处	-5622
大林	-5623
奇怪	-5624
完了	-5625
屠杀	-5626
度的	-5627
度过	-5628
彩虹	-5629
心情	-5630
意图	-5631
损害	-5632
掩盖	-5633
提议	-5634
数十	-5635
昭和	-5636
架构	-5637
氮气	-5638
没收	-5639
港口	-5640
男人	-5641
终点	-5642
翌年	-5643
英军	-5644
道光	-5645
长子	-5646
隐蔽	-5647
鲁迅	-5648
ire	-5649
人认为	-5650
以至于	-5651
传染病	-5652
决赛以	-5653
动画片	-5654
升格为	-5655
就已经	-5656
独立的	-5657
立方米	-5658
第一天	-5659
给自己	-5660
1949	-5661
2020	-5662
▁2004	-5663
。2017	-5664
LE	-5665
TC	-5666
Un	-5667
ma	-5668
以其	-5669
任教	-5670
修道	-5671
党员	-5672
六十	-5673
内陆	-5674
凌晨	-5675
刑事	-5676
区内	-5677
可在	-5678
史密	-5679
后于	-5680
夜间	-5681
大力	-5682
大批	-5683
大阪	-5684
幕府	-5685
平时	-5686
年份	-5687
得分	-5688
手表	-5689
探索	-5690
日由	-5691
是反	-5692
月份	-5693
月底	-5694
染色	-5695
沙田	-5696
温和	-5697
物的	-5698
种植	-5699
策略	-5700
聚集	-5701
苏丹	-5702
讨厌	-5703
语音	-5704
转动	-5705
迷信	-5706
都督	-5707
金山	-5708
马斯	-5709
0.0	-5710
▁16	-5711
低气压	-5712
后来的	-5713
在台湾	-5714
地球上	-5715
是人类	-5716
病人的	-5717
范围内	-5718
角色的	-5719
项目的	-5720
orld	-5721
▁曾祖父	-5722
县的一个	-5723
接下来的	-5724
TR	-5725
VD	-5726
▁!	-5727
一部	-5728
两侧	-5729
产地	-5730
低级	-5731
信徒	-5732
军官	-5733
冰川	-5734
包裹	-5735
发育	-5736
外观	-5737
大卫	-5738
头部	-5739
好像	-5740
婴儿	-5741
安乐	-5742
安静	-5743
容纳	-5744
布什	-5745
常务	-5746
并与	-5747
店铺	-5748
归还	-5749
德拉	-5750
性与	-5751
感知	-5752
我把	-5753
捷运	-5754
日元	-5755
暴雨	-5756
死于	-5757
母校	-5758
的全	-5759
监察	-5760
眼泪	-5761
结尾	-5762
脾气	-5763
西斯	-5764
诗句	-5765
转世	-5766
这时	-5767
送到	-5768
选项	-5769
面上	-5770
ial	-5771
ish	-5772
ple	-5773
▁日本	-5774
年成立	-5775
形成的	-5776
性行为	-5777
日下午	-5778
的危险	-5779
的最高	-5780
第三甲	-5781
铁路局	-5782
阿根廷	-5783
,2011	-5784
年时的人口为人	-5785
pe	-5786
ux	-5787
▁普	-5788
一周	-5789
个半	-5790
中医	-5791
中断	-5792
争夺	-5793
但不	-5794
依法	-5795
借助	-5796
公会	-5797
公告	-5798
冷面	-5799
分成	-5800
加特	-5801
包装	-5802
发达	-5803
场地	-5804
大夫	-5805
实则	-5806
对称	-5807
尔摩	-5808
巧克	-5809
巴巴	-5810
布莱	-5811
开启	-5812
影子	-5813
微博	-5814
战车	-5815
抹黑	-5816
来往	-5817
格勒	-5818
没法	-5819
特兰	-5820
理工	-5821
相声	-5822
碎片	-5823
识字	-5824
贝克	-5825
输出	-5826
过河	-5827
这类	-5828
镇压	-5829
镜子	-5830
颁布	-5831
首播	-5832
马林	-5833
骨头	-5834
黑暗	-5835
404	-5836
ess	-5837
ust	-5838
▁20	-5839
不要再	-5840
举办的	-5841
了他的	-5842
事件的	-5843
前面的	-5844
医生的	-5845
原意是	-5846
原来的	-5847
参与了	-5848
发出的	-5849
因为他	-5850
居民点	-5851
强大的	-5852
没办法	-5853
的人生	-5854
的对象	-5855
自动化	-5856
转化为	-5857
生活中的	-5858
。2005	-5859
ON	-5860
▁去	-5861
一颗	-5862
中海	-5863
为此	-5864
主体	-5865
主办	-5866
也就	-5867
互换	-5868
先进	-5869
光的	-5870
公式	-5871
公斤	-5872
制片	-5873
友好	-5874
合法	-5875
名义	-5876
和人	-5877
姿势	-5878
家具	-5879
布雷	-5880
废除	-5881
打败	-5882
抽烟	-5883
指在	-5884
方舟	-5885
时报	-5886
末期	-5887
格里	-5888
瓶子	-5889
的牌	-5890
眼皮	-5891
约瑟	-5892
能源	-5893
花草	-5894
英里	-5895
葫芦	-5896
蒙特	-5897
蜡烛	-5898
衍生	-5899
跟你	-5900
较高	-5901
都很	-5902
随意	-5903
高达	-5904
龙山	-5905
You	-5906
ore	-5907
之后的	-5908
也不会	-5909
以及对	-5910
任中共	-5911
作品的	-5912
保住了	-5913
受到了	-5914
在内的	-5915
来进行	-5916
河南省	-5917
第一届	-5918
表明了	-5919
近年来	-5920
通常与	-5921
委副书记	-5922
维多利亚	-5923
这个世界	-5924
8,	-5925
▁它	-5926
上流	-5927
中正	-5928
丽的	-5929
人均	-5930
以东	-5931
会变	-5932
制成	-5933
剩余	-5934
图片	-5935
圆柱	-5936
圣母	-5937
地产	-5938
大肠	-5939
学的	-5940
容量	-5941
干燥	-5942
年获	-5943
抑郁	-5944
改建	-5945
本线	-5946
格格	-5947
沟通	-5948
海上	-5949
症状	-5950
相继	-5951
租界	-5952
秦王	-5953
粤语	-5954
而死	-5955
而该	-5956
花甲	-5957
落成	-5958
车队	-5959
迁至	-5960
违背	-5961
适应	-5962
错位	-5963
长安	-5964
阉割	-5965
ber	-5966
▁Ar	-5967
▁id	-5968
人死亡	-5969
加起来	-5970
女孩子	-5971
意思为	-5972
意识到	-5973
既可以	-5974
是不可	-5975
湖南省	-5976
的主题	-5977
的山峰	-5978
相联系	-5979
维生素	-5980
赋予了	-5981
6000	-5982
为什么要	-5983
电力机车	-5984
研究中心	-5985
AP	-5986
BD	-5987
Cl	-5988
ee	-5989
▁吃	-5990
。‘	-5991
不入	-5992
主场	-5993
二进	-5994
亚美	-5995
任期	-5996
凸显	-5997
叔叔	-5998
变量	-5999
合一	-6000
哲理	-6001
四大	-6002
国军	-6003
城的	-6004
士的	-6005
大选	-6006
失误	-6007
嫖娼	-6008
存储	-6009
实体	-6010
尊重	-6011
巴拉	-6012
常理	-6013
庆祝	-6014
弹药	-6015
心里	-6016
所知	-6017
拿破	-6018
指着	-6019
整合	-6020
新界	-6021
时刻	-6022
是最	-6023
智能	-6024
未知	-6025
查出	-6026
梦中	-6027
模糊	-6028
次于	-6029
正月	-6030
水深	-6031
犯法	-6032
睡着	-6033
碎了	-6034
祖先	-6035
考场	-6036
肠胃	-6037
般的	-6038
褒姒	-6039
讲话	-6040
许可	-6041
财富	-6042
车厢	-6043
运算	-6044
迟迟	-6045
通信	-6046
附属	-6047
马赛	-6048
麻烦	-6049
Mar	-6050
ick	-6051
ost	-6052
ung	-6053
▁医生	-6054
▁除了	-6055
世界中	-6056
以达到	-6057
发明了	-6058
市政府	-6059
建筑师	-6060
或其他	-6061
爱情的	-6062
的可能	-6063
的绝对	-6064
节度使	-6065
部部长	-6066
银行卡	-6067
1986	-6068
未成年人	-6069
Google	-6070
):	-6071
ey	-6072
▁九	-6073
▁红	-6074
一分	-6075
上香	-6076
不上	-6077
也曾	-6078
他对	-6079
入了	-6080
加班	-6081
半球	-6082
却说	-6083
原为	-6084
受损	-6085
可修	-6086
名叫	-6087
商店	-6088
坐在	-6089
多人	-6090
大于	-6091
大帝	-6092
大盗	-6093
尼尔	-6094
差别	-6095
引导	-6096
彩票	-6097
总裁	-6098
扩建	-6099
拆解	-6100
收银	-6101
故人	-6102
数位	-6103
日后	-6104
更换	-6105
洁癖	-6106
演艺	-6107
焦点	-6108
的西	-6109
皱纹	-6110
综艺	-6111
而行	-6112
行走	-6113
让我	-6114
评委	-6115
诗歌	-6116
该党	-6117
该市	-6118
赞美	-6119
运气	-6120
这份	-6121
透明	-6122
阶层	-6123
难题	-6124
首位	-6125
香火	-6126
-18	-6127
ies	-6128
ush	-6129
▁17	-6130
▁2.	-6131
不一定	-6132
个人的	-6133
他认为	-6134
句子的	-6135
战争中	-6136
无神论	-6137
最高的	-6138
每小时	-6139
清明节	-6140
的权利	-6141
的标准	-6142
管理局	-6143
讽刺和	-6144
起来了	-6145
逻辑上	-6146
1958	-6147
1976	-6148
1977	-6149
美国海军	-6150
,2005	-6151
,2012	-6152
enter	-6153
round	-6154
。2003	-6155
JO	-6156
ox	-6157
▁全	-6158
▁孟	-6159
一日	-6160
一路	-6161
中东	-6162
书写	-6163
传教	-6164
低年	-6165
你妈	-6166
保住	-6167
修订	-6168
停尸	-6169
偷偷	-6170
几年	-6171
判定	-6172
勉强	-6173
区分	-6174
博主	-6175
史称	-6176
型号	-6177
夸奖	-6178
婆汤	-6179
定位	-6180
宣告	-6181
引爆	-6182
强的	-6183
授权	-6184
撒尿	-6185
数百	-6186
无需	-6187
日历	-6188
春天	-6189
死前	-6190
残忍	-6191
活活	-6192
海鲜	-6193
点的	-6194
环形	-6195
现为	-6196
痴呆	-6197
登记	-6198
皇上	-6199
茅屋	-6200
记账	-6201
评选	-6202
诈骗	-6203
该校	-6204
货物	-6205
贪污	-6206
贵子	-6207
赞助	-6208
身是	-6209
转而	-6210
通知	-6211
遗书	-6212
邮箱	-6213
里达	-6214
重组	-6215
金刚	-6216
雨滴	-6217
题的	-6218
风扇	-6219
驱动	-6220
高原	-6221
119	-6222
ook	-6223
ott	-6224
und	-6225
一样的	-6226
句子中	-6227
大法官	-6228
夸大了	-6229
孙中山	-6230
拿破仑	-6231
有时候	-6232
电影的	-6233
的代表	-6234
的广告	-6235
的服务	-6236
的特点	-6237
的社会	-6238
福建省	-6239
突显了	-6240
老师在	-6241
考场上	-6242
而感到	-6243
肚子里	-6244
部尚书	-6245
郭敬明	-6246
ISTA	-6247
▁指的是	-6248
为什么不	-6249
双重含义	-6250
可能暗示	-6251
夸张表达	-6252
并不是指	-6253
有一定的	-6254
白雪公主	-6255
神话中的	-6256
绝地求生	-6257
视星等为	-6258
省负责管辖	-6259
5.	-6260
CH	-6261
MV	-6262
、《	-6263
一张	-6264
不佳	-6265
不多	-6266
中午	-6267
也纳	-6268
买卖	-6269
争论	-6270
人称	-6271
众人	-6272
但仍	-6273
低于	-6274
克罗	-6275
公平	-6276
冥币	-6277
功率	-6278
北侧	-6279
十七	-6280
单独	-6281
后又	-6282
喜羊	-6283
多名	-6284
夜空	-6285
姑父	-6286
定谔	-6287
平民	-6288
录取	-6289
彼此	-6290
忍俊	-6291
快点	-6292
总共	-6293
搭配	-6294
暗讽	-6295
月起	-6296
树木	-6297
棉花	-6298
楚雨	-6299
正反	-6300
气温	-6301
汗水	-6302
流动	-6303
烹饪	-6304
爱豆	-6305
特区	-6306
生而	-6307
的有	-6308
的神	-6309
的自	-6310
知乎	-6311
砍头	-6312
空手	-6313
算法	-6314
结局	-6315
联络	-6316
脂鲤	-6317
致力	-6318
草船	-6319
著有	-6320
证的	-6321
试纸	-6322
调解	-6323
谢邀	-6324
赛会	-6325
走路	-6326
起夜	-6327
转折	-6328
转身	-6329
过后	-6330
镜头	-6331
首尔	-6332
首席	-6333
骂人	-6334
黑帮	-6335
now	-6336
▁th	-6337
▁其中	-6338
▁目前	-6339
上网课	-6340
不喜欢	-6341
代码为	-6342
作曲家	-6343
停尸房	-6344
司令部	-6345
和幽默	-6346
喜羊羊	-6347
多少钱	-6348
将自己	-6349
岂可修	-6350
斯大林	-6351
楚雨荨	-6352
永动机	-6353
爱好者	-6354
留下了	-6355
的活动	-6356
的特有	-6357
类比成	-6358
维也纳	-6359
而导致	-6360
职业病	-6361
薛定谔	-6362
路易斯	-6363
鼻毛味	-6364
▁为什么	-6365
▁这里把	-6366
亚美尼亚	-6367
什么意思	-6368
从众心理	-6369
令人忍俊	-6370
但在这里	-6371
困因困因	-6372
带上垃圾	-6373
幽默地将	-6374
我很抱歉	-6375
扫黄大队	-6376
而这里的	-6377
蝴蝶效应	-6378
颗小行星	-6379
steam	-6380
▁这句话在	-6381
▁这句话是	-6382
创造了一种	-6383
展现了一种	-6384
幽默的表达	-6385
形成幽默的	-6386
荒谬的情境	-6387
表现出一种	-6388
足球俱乐部	-6389
这里指的是	-6390
▁这里使用了	-6391
令人忍俊不禁	-6392
幽默地描述了	-6393
现代网络用语	-6394
通常用来形容	-6395
▁这句话使用了	-6396
▁这句话是一个	-6397
▁这句话结合了	-6398
▁这句话通过对	-6399
年美国人口普查	-6400
,2	-6401
,6	-6402
IN	-6403
MS	-6404
hn	-6405
三维	-6406
三藏	-6407
上签	-6408
下属	-6409
下载	-6410
不算	-6411
东尼	-6412
丧失	-6413
人传	-6414
但其	-6415
公交	-6416
六个	-6417
到底	-6418
前方	-6419
劳工	-6420
反抗	-6421
变色	-6422
史记	-6423
司职	-6424
品种	-6425
回复	-6426
处长	-6427
大洋	-6428
市政	-6429
年他	-6430
指示	-6431
提及	-6432
摩尔	-6433
新增	-6434
旧址	-6435
早在	-6436
普鲁	-6437
景观	-6438
期刊	-6439
水里	-6440
游击	-6441
灯塔	-6442
现存	-6443
用到	-6444
航线	-6445
落在	-6446
西元	-6447
陷阱	-6448
雷达	-6449
青海	-6450
颠覆	-6451
高于	-6452
900	-6453
ass	-6454
col	-6455
rom	-6456
ube	-6457
yle	-6458
▁此外	-6459
会议员	-6460
加利福	-6461
区议会	-6462
发电厂	-6463
在他的	-6464
巧克力	-6465
放射性	-6466
正确的	-6467
毕业生	-6468
氧化碳	-6469
百分之	-6470
的人的	-6471
的功能	-6472
被用来	-6473
这件事	-6474
重复的	-6475
1973	-6476
1983	-6477
1987	-6478
Play	-6479
▁Sch	-6480
人民法院	-6481
共产主义	-6482
精神分裂	-6483
考古学家	-6484
。2004	-6485
1900.0	-6486
Sh	-6487
▁年	-6488
不良	-6489
东亚	-6490
书中	-6491
光照	-6492
六月	-6493
共计	-6494
分解	-6495
剧集	-6496
十大	-6497
占有	-6498
否认	-6499
四维	-6500
地名	-6501
委任	-6502
字体	-6503
安人	-6504
岩石	-6505
拉拉	-6506
损伤	-6507
推断	-6508
是他	-6509
是用	-6510
本作	-6511
格鲁	-6512
档案	-6513
棒球	-6514
欧盟	-6515
氨酸	-6516
注入	-6517
洛伦	-6518
涉嫌	-6519
的上	-6520
福德	-6521
穿着	-6522
终结	-6523
绘画	-6524
老鼠	-6525
补充	-6526
被杀	-6527
设在	-6528
谢谢	-6529
赚钱	-6530
赤纬	-6531
赤经	-6532
起到	-6533
过多	-6534
追溯	-6535
选出	-6536
配备	-6537
里克	-6538
雅典	-6539
首相	-6540
bad	-6541
cos	-6542
ool	-6543
▁人类	-6544
。12	-6545
为一个	-6546
位于银	-6547
包括了	-6548
可以是	-6549
常用的	-6550
现时由	-6551
的精神	-6552
被发现	-6553
这个字	-6554
马克思	-6555
1979	-6556
land	-6557
南斯拉夫	-6558
历史上的	-6559
本身就是	-6560
男同性恋	-6561
。2018	-6562
-4	-6563
▁Z	-6564
▁伊	-6565
▁梦	-6566
▁苏	-6567
一共	-6568
一对	-6569
一道	-6570
七月	-6571
亥俄	-6572
以便	-6573
但因	-6574
促使	-6575
修正	-6576
做事	-6577
入围	-6578
兵器	-6579
初年	-6580
利润	-6581
剧中	-6582
半径	-6583
取向	-6584
古巴	-6585
呼吁	-6586
多伦	-6587
家乡	-6588
巴基	-6589
抓住	-6590
撤退	-6591
时段	-6592
是要	-6593
暴露	-6594
本名	-6595
校区	-6596
格雷	-6597
王妃	-6598
的国	-6599
的最	-6600
矩阵	-6601
福特	-6602
罗琳	-6603
脏的	-6604
草本	-6605
过敏	-6606
配置	-6607
黑奴	-6608
2.5	-6609
SAO	-6610
ina	-6611
》("	-6612
为日本	-6613
俄亥俄	-6614
保护法	-6615
史密斯	-6616
所以他	-6617
描述为	-6618
无障碍	-6619
法兰克	-6620
考试的	-6621
贝斯手	-6622
,196	-6623
1940	-6624
1946	-6625
1956	-6626
1984	-6627
历史事件	-6628
物理学家	-6629
这种行为	-6630
(2009	-6631
,0	-6632
CC	-6633
Sc	-6634
Sp	-6635
_1	-6636
▁杨	-6637
▁科	-6638
▁第	-6639
不长	-6640
与人	-6641
主权	-6642
乒乓	-6643
人或	-6644
仍有	-6645
以西	-6646
伤口	-6647
减轻	-6648
卫视	-6649
危害	-6650
可笑	-6651
同志	-6652
后方	-6653
大白	-6654
好了	-6655
季后	-6656
客车	-6657
小姐	-6658
年与	-6659
建国	-6660
开创	-6661
战术	-6662
数个	-6663
来做	-6664
格尔	-6665
梦想	-6666
歌唱	-6667
残疾	-6668
添加	-6669
溢血	-6670
满洲	-6671
火灾	-6672
特警	-6673
狙击	-6674
相处	-6675
累积	-6676
纤维	-6677
经纪	-6678
职场	-6679
肉体	-6680
色情	-6681
该片	-6682
起源	-6683
过分	-6684
这座	-6685
这条	-6686
逐步	-6687
银纬	-6688
随机	-6689
题材	-6690
▁人们	-6691
不同意	-6692
世纪的	-6693
以此来	-6694
但没有	-6695
分子的	-6696
参议院	-6697
号种子	-6698
因为它	-6699
女性为	-6700
很大的	-6701
德意志	-6702
所在地	-6703
改制为	-6704
星期五	-6705
是一款	-6706
普通人	-6707
有可能	-6708
未完成	-6709
脑溢血	-6710
首歌曲	-6711
span	-6712
位于银经	-6713
坐标为赤经	-6714
EE	-6715
ps	-6716
▁下	-6717
▁后	-6718
一支	-6719
一说	-6720
七个	-6721
不管	-6722
主打	-6723
乡镇	-6724
代的	-6725
你在	-6726
依照	-6727
内亚	-6728
内外	-6729
写道	-6730
几天	-6731
刚好	-6732
加尔	-6733
去找	-6734
后才	-6735
哈里	-6736
哥特	-6737
外表	-6738
奇妙	-6739
始终	-6740
崇拜	-6741
抢劫	-6742
数码	-6743
斯洛	-6744
智商	-6745
武力	-6746
永久	-6747
玩弄	-6748
电压	-6749
百科	-6750
秋风	-6751
穿过	-6752
站台	-6753
细节	-6754
缓慢	-6755
脚下	-6756
自此	-6757
跑道	-6758
顺便	-6759
(10	-6760
ood	-6761
不完全	-6762
不得不	-6763
件事情	-6764
体育场	-6765
动物园	-6766
历史的	-6767
因此在	-6768
在上海	-6769
在没有	-6770
处理器	-6771
就是在	-6772
或行为	-6773
是英国	-6774
的前提	-6775
的土地	-6776
的城市	-6777
的工具	-6778
的物理	-6779
的经济	-6780
这也是	-6781
其中一个	-6782
出人意料	-6783
年的时间	-6784
量子力学	-6785
通常情况下	-6786
ational	-6787
PC	-6788
cn	-6789
》《	-6790
丞相	-6791
之上	-6792
之内	-6793
之时	-6794
乡村	-6795
了三	-6796
事的	-6797
伴侣	-6798
余人	-6799
全线	-6800
公正	-6801
冲击	-6802
出色	-6803
创意	-6804
制毒	-6805
卫队	-6806
变种	-6807
同月	-6808
品质	-6809
啤酒	-6810
四月	-6811
地将	-6812
培训	-6813
大了	-6814
太原	-6815
奇幻	-6816
委托	-6817
婚礼	-6818
巴斯	-6819
并被	-6820
序列	-6821
开心	-6822
感和	-6823
慈善	-6824
慕容	-6825
括号	-6826
拯救	-6827
教科	-6828
数为	-6829
数值	-6830
无限	-6831
是白	-6832
更改	-6833
曾被	-6834
欧元	-6835
水利	-6836
法语	-6837
洗衣	-6838
浏览	-6839
涵盖	-6840
深的	-6841
留学	-6842
百货	-6843
的美	-6844
祖宗	-6845
荣获	-6846
落地	-6847
议席	-6848
说服	-6849
贩卖	-6850
跨越	-6851
造型	-6852
隐含	-6853
风吹	-6854
鲤鱼	-6855
-12	-6856
130	-6857
iam	-6858
iss	-6859
▁现在	-6860
。11	-6861
不可以	-6862
世纪初	-6863
主持人	-6864
之所以	-6865
余光中	-6866
儿子的	-6867
及其他	-6868
反过来	-6869
学校的	-6870
引发了	-6871
成立了	-6872
推出的	-6873
气象局	-6874
的动作	-6875
的小说	-6876
的政策	-6877
的质量	-6878
第十一	-6879
老年人	-6880
表达出	-6881
该公司	-6882
面积为	-6883
1943	-6884
1978	-6885
▁Com	-6886
是一样的	-6887
inton	-6888
创造了一个	-6889
7.	-6890
UN	-6891
▁光	-6892
「」	-6893
一至	-6894
不详	-6895
为大	-6896
五百	-6897
交往	-6898
付费	-6899
体内	-6900
做为	-6901
六国	-6902
凭借	-6903
分辨	-6904
县治	-6905
可乐	-6906
可爱	-6907
四人	-6908
四字	-6909
土壤	-6910
坟场	-6911
多尔	-6912
大概	-6913
天府	-6914
宇航	-6915
实在	-6916
室内	-6917
小刚	-6918
山市	-6919
工会	-6920
巴马	-6921
布朗	-6922
希特	-6923
应对	-6924
录制	-6925
得好	-6926
德堡	-6927
急性	-6928
托梦	-6929
托管	-6930
挫折	-6931
授课	-6932
提倡	-6933
支撑	-6934
教宗	-6935
整点	-6936
既有	-6937
晚期	-6938
有点	-6939
机枪	-6940
构建	-6941
梅花	-6942
次日	-6943
此类	-6944
母语	-6945
油漆	-6946
法拉	-6947
海默	-6948
滋病	-6949
漂亮	-6950
特朗	-6951
理学	-6952
理查	-6953
疲惫	-6954
登场	-6955
皇子	-6956
短语	-6957
续费	-6958
编写	-6959
艾伦	-6960
芝加	-6961
花费	-6962
评为	-6963
诞生	-6964
详细	-6965
说谎	-6966
谁能	-6967
谈话	-6968
赛的	-6969
边的	-6970
过得	-6971
还能	-6972
迫使	-6973
迷宫	-6974
防守	-6975
附加	-6976
雷特	-6977
鱼片	-6978
鸽子	-6979
()、	-6980
-10	-6981
RNA	-6982
ath	-6983
ide	-6984
。10	-6985
为台湾	-6986
仅次于	-6987
任天堂	-6988
内心的	-6989
四个字	-6990
外交部	-6991
大数据	-6992
找不到	-6993
爱德华	-6994
犹太人	-6995
电影院	-6996
的中国	-6997
的哲学	-6998
的政治	-6999
的最后	-7000
的结合	-7001
行政院	-7002
1981	-7003
ames	-7004
中国古代	-7005
产生一种	-7006
我的世界	-7007
知识分子	-7008
这个结果	-7009
年人口普查	-7010
清朝政治人物	-7011
(8	-7012
-5	-7013
az	-7014
▁但	-7015
▁外	-7016
▁水	-7017
一方	-7018
丽莎	-7019
举人	-7020
体积	-7021
光点	-7022
兰经	-7023
凤凰	-7024
则被	-7025
半个	-7026
半年	-7027
压制	-7028
反射	-7029
名人	-7030
后在	-7031
哪吒	-7032
回来	-7033
在场	-7034
城县	-7035
堂区	-7036
夫妇	-7037
定时	-7038
家暴	-7039
干扰	-7040
归零	-7041
情景	-7042
找零	-7043
抄袭	-7044
抛弃	-7045
操纵	-7046
放假	-7047
时尚	-7048
更是	-7049
最好	-7050
标题	-7051
梵蒂	-7052
楚门	-7053
求救	-7054
汽油	-7055
河的	-7056
流程	-7057
爷爷	-7058
牛头	-7059
现状	-7060
的点	-7061
的音	-7062
移居	-7063
约定	-7064
翰林	-7065
联军	-7066
聚落	-7067
致谢	-7068
芬达	-7069
莱茵	-7070
菲利	-7071
萝莉	-7072
落后	-7073
讨伐	-7074
让她	-7075
议题	-7076
谣言	-7077
超人	-7078
银杏	-7079
领先	-7080
食性	-7081
骆驼	-7082
ala	-7083
ary	-7084
▁法国	-7085
一千人	-7086
反人类	-7087
大部份	-7088
干什么	-7089
性取向	-7090
梵蒂冈	-7091
没有钱	-7092
河流域	-7093
混淆了	-7094
用一种	-7095
的一次	-7096
的行动	-7097
第十二	-7098
芝加哥	-7099
虚构的	-7100
让他们	-7101
还活着	-7102
1947	-7103
1952	-7104
1982	-7105
传统文化	-7106
化学反应	-7107
是一个人	-7108
的一个县	-7109
知道自己	-7110
研究人员	-7111
社会现象	-7112
解决问题	-7113
除此之外	-7114
ISTAT	-7115
▁2002	-7116
▁这颗小行星	-7117
的绝对星等为	-7118
Station	-7119
中华人民共和国政治人物	-7120
▁这颗小行星的绝对星等为	-7121
-7	-7122
ET	-7123
ML	-7124
▁<	-7125
▁|	-7126
。<	-7127
上人	-7128
上诉	-7129
不住	-7130
专注	-7131
之地	-7132
人心	-7133
他将	-7134
入睡	-7135
内有	-7136
决于	-7137
减法	-7138
出乎	-7139
出家	-7140
击的	-7141
前来	-7142
加工	-7143
北极	-7144
单身	-7145
又在	-7146
同人	-7147
哆啦	-7148
商务	-7149
在中	-7150
地上	-7151
士顿	-7152
好友	-7153
守护	-7154
官至	-7155
岛的	-7156
干预	-7157
年任	-7158
广义	-7159
座堂	-7160
承受	-7161
接著	-7162
救护	-7163
斯卡	-7164
斯里	-7165
查理	-7166
桂花	-7167
检验	-7168
正好	-7169
残酷	-7170
每周	-7171
消耗	-7172
火线	-7173
灵活	-7174
版的	-7175
电源	-7176
电路	-7177
的倒	-7178
的对	-7179
益州	-7180
直升	-7181
祝福	-7182
空洞	-7183
级别	-7184
纸钱	-7185
致命	-7186
花生	-7187
观光	-7188
豌豆	-7189
超市	-7190
身材	-7191
透了	-7192
逼迫	-7193
队友	-7194
雨伞	-7195
额外	-7196
风凉	-7197
饭菜	-7198
龙头	-7199
99%	-7200
DVD	-7201
▁Sh	-7202
▁我在	-7203
▁此处	-7204
不平等	-7205
个人格	-7206
了一天	-7207
二级甲	-7208
典型的	-7209
制作人	-7210
反歧视	-7211
在北京	-7212
引起了	-7213
我爱你	-7214
所以是	-7215
指挥官	-7216
的想象	-7217
的解释	-7218
第一百	-7219
肠胃炎	-7220
说出来	-7221
辞职信	-7222
还可以	-7223
选举中	-7224
1954	-7225
1975	-7226
则是一种	-7227
学术不端	-7228
无可奈何	-7229
现实中的	-7230
葡萄牙语	-7231
。2000	-7232
创造出一种	-7233
让人联想到	-7234
位于该国北部	-7235
--	-7236
-3	-7237
;"	-7238
▁由	-7239
▁男	-7240
▁鱼	-7241
不下	-7242
不符	-7243
乌拉	-7244
书包	-7245
仍在	-7246
仔细	-7247
付出	-7248
傻逼	-7249
兴奋	-7250
冒烟	-7251
分校	-7252
别想	-7253
制动	-7254
前进	-7255
印刷	-7256
原型	-7257
取自	-7258
叠加	-7259
和大	-7260
咕嘟	-7261
响指	-7262
唐僧	-7263
嘴硬	-7264
图形	-7265
地滑	-7266
坟头	-7267
埋了	-7268
大公	-7269
女人	-7270
宿舍	-7271
封锁	-7272
带走	-7273
平定	-7274
延毕	-7275
引人	-7276
德斯	-7277
怀念	-7278
截瘫	-7279
拆弹	-7280
接壤	-7281
斯托	-7282
早生	-7283
曹冲	-7284
曾是	-7285
本句	-7286
本次	-7287
条款	-7288
水果	-7289
洒自	-7290
游行	-7291
满分	-7292
煎烤	-7293
牙齿	-7294
猫棒	-7295
笑死	-7296
细致	-7297
缩短	-7298
置于	-7299
药品	-7300
蒸发	-7301
血路	-7302
行李	-7303
装成	-7304
言语	-7305
贫穷	-7306
跳级	-7307
还要	-7308
这位	-7309
连结	-7310
途经	-7311
金额	-7312
一条命	-7313
下地狱	-7314
不相信	-7315
为基础	-7316
伊拉克	-7317
僵尸粉	-7318
副部长	-7319
加利亚	-7320
原本指	-7321
可前往	-7322
吃人的	-7323
和反讽	-7324
地中海	-7325
增强了	-7326
女演员	-7327
字面化	-7328
孟婆汤	-7329
实现的	-7330
小天才	-7331
很正常	-7332
抹脖子	-7333
本意指	-7334
植物的	-7335
此处将	-7336
母狮子	-7337
江西省	-7338
火车站	-7339
牵牛花	-7340
玩笑话	-7341
用幽默	-7342
的第二	-7343
的范围	-7344
组织的	-7345
老无力	-7346
耻辱柱	-7347
荒谬感	-7348
葫芦娃	-7349
记忆的	-7350
说白了	-7351
蹭热度	-7352
转大肠	-7353
过河拆	-7354
逗猫棒	-7355
都可以	-7356
风格的	-7357
飞行员	-7358
1948	-7359
1974	-7360
佛罗里达	-7361
双厨狂喜	-7362
句子中的	-7363
多重人格	-7364
小就聪明	-7365
巴基斯坦	-7366
带有调侃	-7367
废话文学	-7368
无线电视	-7369
杀不死你	-7370
杀死那个	-7371
狼性文化	-7372
表现了对	-7373
谈判专家	-7374
这个名字	-7375
这种对比	-7376
这里通过	-7377
食人族的	-7378
▁该句通过	-7379
▁这里是对	-7380
。1999	-7381
一词的双关	-7382
幽默地表达	-7383
幽默或讽刺	-7384
拖延症发作	-7385
的幽默表达	-7386
网络流行语	-7387
荒谬的逻辑	-7388
讽刺的方式	-7389
这里使用了	-7390
可能是在调侃	-7391
巧妙地利用了	-7392
形象地表达了	-7393
▁这句话利用了	-7394
制造了幽默效果	-7395
未成年人保护法	-7396
的概念进行类比	-7397
▁这句话表达了一种	-7398
▁这句话是一种幽默的	-7399
意思是用幽默的方式表达	-7400
(4	-7401
▁0	-7402
。4	-7403
不便	-7404
与此	-7405
人事	-7406
仙女	-7407
传奇	-7408
伯爵	-7409
低下	-7410
减弱	-7411
加速	-7412
北洋	-7413
又有	-7414
双打	-7415
反思	-7416
发了	-7417
同步	-7418
后被	-7419
嘉义	-7420
子在	-7421
字符	-7422
察觉	-7423
封闭	-7424
崩溃	-7425
年以	-7426
幸存	-7427
影院	-7428
惊讶	-7429
拍卖	-7430
指向	-7431
接头	-7432
援助	-7433
攻打	-7434
无情	-7435
晋级	-7436
有机	-7437
村民	-7438
杰出	-7439
格的	-7440
毁灭	-7441
沉没	-7442
清真	-7443
环球	-7444
空调	-7445
笼草	-7446
纳尔	-7447
编组	-7448
股东	-7449
胜出	-7450
航天	-7451
被害	-7452
被捕	-7453
西侧	-7454
贬义	-7455
赛车	-7456
越大	-7457
适的	-7458
重心	-7459
长得	-7460
高压	-7461
乒乓球	-7462
原本的	-7463
参议员	-7464
取决于	-7465
命名的	-7466
和一个	-7467
太阳公	-7468
小时候	-7469
常委会	-7470
常用于	-7471
录影带	-7472
最终在	-7473
河北省	-7474
湖北省	-7475
的一项	-7476
的所有	-7477
的自我	-7478
驱逐舰	-7479
1941	-7480
ence	-7481
line	-7482
体系管理	-7483
南极条约	-7484
现时由南极条约	-7485
现时由南极条约体系管理	-7486
,4	-7487
ES	-7488
IA	-7489
SM	-7490
▁/	-7491
▁发	-7492
」)	-7493
一项	-7494
上游	-7495
不愿	-7496
与他	-7497
位的	-7498
作词	-7499
八月	-7500
军人	-7501
出租	-7502
分割	-7503
列出	-7504
剧组	-7505
口音	-7506
地道	-7507
实践	-7508
就要	-7509
山地	-7510
平平	-7511
弗拉	-7512
德川	-7513
恶的	-7514
指责	-7515
数目	-7516
明白	-7517
波特	-7518
济南	-7519
生下	-7520
的意	-7521
的样	-7522
省级	-7523
终止	-7524
继任	-7525
网页	-7526
股票	-7527
萨拉	-7528
西里	-7529
视线	-7530
诸多	-7531
起家	-7532
起的	-7533
路径	-7534
迟到	-7535
道理	-7536
阳市	-7537
首度	-7538
黄海	-7539
ory	-7540
son	-7541
▁Al	-7542
▁今天	-7543
中饰演	-7544
以为是	-7545
十七年	-7546
参谋长	-7547
基督徒	-7548
多伦多	-7549
居住在	-7550
式月台	-7551
心理学	-7552
意义上	-7553
正式的	-7554
的粉丝	-7555
等同于	-7556
解决了	-7557
该物种	-7558
语言的	-7559
超能力	-7560
逢星期	-7561
-21、	-7562
3000	-7563
保加利亚	-7564
可以直接	-7565
因为他们	-7566
▁2000	-7567
。1990	-7568
印度尼西亚	-7569
ground	-7570
▁style	-7571
,7	-7572
1/	-7573
Ph	-7574
US	-7575
▁多	-7576
。6	-7577
一会	-7578
三名	-7579
之人	-7580
之母	-7581
交界	-7582
亦可	-7583
介石	-7584
会让	-7585
伟大	-7586
假日	-7587
党的	-7588
公顷	-7589
其子	-7590
冷却	-7591
匮乏	-7592
古龙	-7593
周刊	-7594
囚犯	-7595
国强	-7596
坍塌	-7597
尺寸	-7598
山县	-7599
川县	-7600
开关	-7601
当下	-7602
手枪	-7603
指控	-7604
改写	-7605
斩获	-7606
日落	-7607
时空	-7608
是中	-7609
本义	-7610
柬埔	-7611
格林	-7612
每一	-7613
毗邻	-7614
炎热	-7615
煎饼	-7616
珊瑚	-7617
珠穆	-7618
百姓	-7619
盲目	-7620
相邻	-7621
磷酸	-7622
福利	-7623
红军	-7624
纪律	-7625
维埃	-7626
网瘾	-7627
而已	-7628
落选	-7629
西区	-7630
西瓜	-7631
讯息	-7632
豪华	-7633
路边	-7634
那样	-7635
闽南	-7636
霸王	-7637
面是	-7638
首诗	-7639
鸟类	-7640
,10	-7641
70%	-7642
ase	-7643
lat	-7644
▁HD	-7645
▁位于	-7646
也无法	-7647
交易所	-7648
修道院	-7649
十一月	-7650
可以把	-7651
新北市	-7652
日本的	-7653
早期的	-7654
本身的	-7655
概念的	-7656
此处的	-7657
源自于	-7658
猪笼草	-7659
的定义	-7660
的特殊	-7661
类型的	-7662
1944	-7663
1971	-7664
被任命为	-7665
,2007	-7666
1:	-7667
sb	-7668
—6	-7669
丁目	-7670
三条	-7671
下人	-7672
不慎	-7673
两台	-7674
中途	-7675
乘坐	-7676
于此	-7677
仅是	-7678
伊利	-7679
公社	-7680
则由	-7681
初步	-7682
加勒	-7683
加热	-7684
卡罗	-7685
印第	-7686
召集	-7687
史蒂	-7688
器上	-7689
固体	-7690
均有	-7691
大兴	-7692
女娲	-7693
学历	-7694
学堂	-7695
宽大	-7696
密的	-7697
层次	-7698
师的	-7699
年于	-7700
开口	-7701
当日	-7702
战败	-7703
抗战	-7704
播映	-7705
放映	-7706
新人	-7707
新建	-7708
日文	-7709
早已	-7710
更有	-7711
标签	-7712
水中	-7713
流亡	-7714
深海	-7715
班次	-7716
的信	-7717
的内	-7718
盟军	-7719
看出	-7720
科尔	-7721
移植	-7722
站房	-7723
竞选	-7724
英镑	-7725
茶叶	-7726
莆田	-7727
见的	-7728
语文	-7729
迪亚	-7730
酱油	-7731
间谍	-7732
雍正	-7733
预言	-7734
默德	-7735
龙王	-7736
age	-7737
iel	-7738
ium	-7739
ley	-7740
ron	-7741
▁地球	-7742
▁曹操	-7743
▁没有	-7744
东南亚	-7745
代表了	-7746
但最终	-7747
受害者	-7748
和空军	-7749
在地上	-7750
大将军	-7751
对美国	-7752
尸体的	-7753
开始了	-7754
总经理	-7755
是一件	-7756
柬埔寨	-7757
模特儿	-7758
的人在	-7759
的大小	-7760
的气氛	-7761
稳定的	-7762
统治者	-7763
自行车	-7764
起源于	-7765
这就是	-7766
1959	-7767
另一个人	-7768
成为一个	-7769
抗日战争	-7770
草本植物	-7771
轨道交通	-7772
登进士第三甲	-7773
以及中国大陆的	-7774
,3	-7775
09	-7776
ve	-7777
xt	-7778
▁、	-7779
▁卷	-7780
▁海	-7781
▁草	-7782
。5	-7783
上将	-7784
不做	-7785
不看	-7786
专区	-7787
主唱	-7788
主播	-7789
了前	-7790
从未	-7791
传输	-7792
侍郎	-7793
俘虏	-7794
做成	-7795
兵团	-7796
其父	-7797
军舰	-7798
冷酷	-7799
刘邦	-7800
化工	-7801
匹配	-7802
协定	-7803
压缩	-7804
参数	-7805
可靠	-7806
台币	-7807
号召	-7808
后因	-7809
哈拉	-7810
国旗	-7811
国籍	-7812
垂直	-7813
士尼	-7814
大雨	-7815
大马	-7816
天生	-7817
妹妹	-7818
始于	-7819
客家	-7820
将于	-7821
屏东	-7822
常的	-7823
开工	-7824
弗朗	-7825
忍者	-7826
惯性	-7827
战列	-7828
打了	-7829
拿着	-7830
救命	-7831
料理	-7832
族群	-7833
朗玛	-7834
枢纽	-7835
桌子	-7836
棱镜	-7837
演绎	-7838
演讲	-7839
照顾	-7840
物业	-7841
球迷	-7842
短期	-7843
脉动	-7844
良好	-7845
访谈	-7846
说成	-7847
迁移	-7848
进修	-7849
重返	-7850
铁的	-7851
长篇	-7852
阵营	-7853
阿富	-7854
首领	-7855
高架	-7856
麦当	-7857
-11	-7858
And	-7859
old	-7860
▁11	-7861
▁所以	-7862
世纪末	-7863
了许多	-7864
今天的	-7865
会议上	-7866
则是指	-7867
则通过	-7868
哥伦布	-7869
在当时	-7870
宇宙的	-7871
探讨了	-7872
接受了	-7873
无论是	-7874
朗玛峰	-7875
洛伦兹	-7876
特朗普	-7877
的思想	-7878
的批评	-7879
的本质	-7880
石家庄	-7881
纪录片	-7882
细胞质	-7883
胜利者	-7884
负责人	-7885
那个人	-7886
部电影	-7887
陕西省	-7888
需要用	-7889
1957	-7890
1972	-7891
一个人的	-7892
也可以指	-7893
出乎意料	-7894
唱片公司	-7895
塞尔维亚	-7896
天文学家	-7897
无神论者	-7898
流域面积	-7899
游戏中的	-7900
美国国家	-7901
足球联赛	-7902
。2001	-7903
珠穆朗玛峰	-7904
位于该国南部	-7905
加入中国共产党	-7906
(2	-7907
,,	-7908
07	-7909
4.	-7910
TO	-7911
一所	-7912
下乡	-7913
与前	-7914
丢弃	-7915
之际	-7916
人间	-7917
今年	-7918
以往	-7919
侵略	-7920
停靠	-7921
公寓	-7922
兵力	-7923
兼容	-7924
剥夺	-7925
博览	-7926
口头	-7927
口径	-7928
哈姆	-7929
哭泣	-7930
国语	-7931
地址	-7932
好奇	-7933
好心	-7934
嫉妒	-7935
学系	-7936
完善	-7937
密集	-7938
屯门	-7939
工商	-7940
左翼	-7941
巴赫	-7942
市内	-7943
年中	-7944
彰化	-7945
很好	-7946
我和	-7947
或称	-7948
所需	-7949
把他	-7950
抓捕	-7951
抬头	-7952
拿下	-7953
无能	-7954
时常	-7955
是该	-7956
昼夜	-7957
智利	-7958
有更	-7959
木大	-7960
查封	-7961
火场	-7962
特尔	-7963
特指	-7964
环绕	-7965
生了	-7966
的书	-7967
私立	-7968
纸币	-7969
维克	-7970
羡慕	-7971
自恋	-7972
自来	-7973
花朵	-7974
苍白	-7975
蒸汽	-7976
路上	-7977
这也	-7978
迷你	-7979
途径	-7980
预算	-7981
首任	-7982
鱼雷	-7983
鸭子	-7984
默认	-7985
(13	-7986
ach	-7987
▁Th	-7988
▁不过	-7989
三角形	-7990
不好的	-7991
中的人	-7992
为中心	-7993
公里的	-7994
十三年	-7995
发现的	-7996
变色龙	-7997
台中市	-7998
台湾省	-7999
周树人	-8000
和政治	-8001
哥尔摩	-8002
实则是	-8003
希腊人	-8004
年以来	-8005
引起的	-8006
当行为	-8007
忍不住	-8008
怎么办	-8009
无厘头	-8010
日上午	-8011
模仿了	-8012
没什么	-8013
男主角	-8014
男性的	-8015
的一切	-8016
的两个	-8017
的中心	-8018
的中文	-8019
的事件	-8020
的原理	-8021
的数量	-8022
直升机	-8023
相对于	-8024
看到了	-8025
系统中	-8026
赢得了	-8027
迪士尼	-8028
重要性	-8029
阿富汗	-8030
高雄市	-8031
-{}-	-8032
1930	-8033
1935	-8034
1966	-8035
可能因为	-8036
▁1949	-8037
斯德哥尔摩	-8038
该市镇年时的人口为人	-8039
PlayStation	-8040
(3	-8041
(9	-8042
DS	-8043
MI	-8044
▁'	-8045
▁乌	-8046
▁奥	-8047
▁百	-8048
万吨	-8049
上任	-8050
不但	-8051
专用	-8052
丧尸	-8053
主导	-8054
之名	-8055
们在	-8056
任内	-8057
会将	-8058
光学	-8059
党组	-8060
冲绳	-8061
冷战	-8062
则以	-8063
到老	-8064
加斯	-8065
包袱	-8066
北宋	-8067
变小	-8068
同事	-8069
向西	-8070
咸的	-8071
哪个	-8072
嘉宾	-8073
在家	-8074
地里	-8075
塔尔	-8076
处罚	-8077
它在	-8078
封建	-8079
屁股	-8080
当做	-8081
当的	-8082
心中	-8083
悲剧	-8084
把我	-8085
指数	-8086
搭载	-8087
改良	-8088
时速	-8089
暗号	-8090
月色	-8091
本子	-8092
歌剧	-8093
汉堡	-8094
活泼	-8095
流畅	-8096
潜在	-8097
牧羊	-8098
率军	-8099
监禁	-8100
破裂	-8101
科研	-8102
立体	-8103
继位	-8104
考入	-8105
脆弱	-8106
节奏	-8107
荀子	-8108
蔬菜	-8109
螺旋	-8110
要是	-8111
识别	-8112
说着	-8113
调剂	-8114
转为	-8115
过世	-8116
过渡	-8117
进军	-8118
门关	-8119
阴间	-8120
降雨	-8121
面包	-8122
饭店	-8123
,17	-8124
act	-8125
ous	-8126
rit	-8127
▁然而	-8128
不同于	-8129
不应该	-8130
严重性	-8131
会让人	-8132
体育馆	-8133
克林顿	-8134
击败了	-8135
分之二	-8136
吸引了	-8137
哲学家	-8138
圣诞节	-8139
奥斯曼	-8140
威尼斯	-8141
学生对	-8142
宇航员	-8143
平均分	-8144
张单曲	-8145
排行榜	-8146
日发行	-8147
是指将	-8148
染色体	-8149
此天体	-8150
段时间	-8151
的女儿	-8152
的成绩	-8153
的相关	-8154
的轨道	-8155
致力于	-8156
艾滋病	-8157
语境中	-8158
逆转录	-8159
如果没有	-8160
时间流逝	-8161
神话故事	-8162
围绕太阳公	-8163
海军和空军	-8164
的特有植物	-8165
是一颗围绕太阳公	-8166
是一颗围绕太阳公转的小行星	-8167
-8	-8168
DI	-8169
ft	-8170
。7	-8171
不切	-8172
与之	-8173
世上	-8174
业者	-8175
中式	-8176
中日	-8177
主的	-8178
之初	-8179
五步	-8180
人也	-8181
人次	-8182
体字	-8183
便衣	-8184
儒家	-8185
全是	-8186
刷新	-8187
割草	-8188
功德	-8189
医师	-8190
南侧	-8191
却在	-8192
发烧	-8193
吃掉	-8194
后世	-8195
多元	-8196
大正	-8197
套娃	-8198
子上	-8199
宣言	-8200
小张	-8201
少将	-8202
巡洋	-8203
布罗	-8204
干线	-8205
很久	-8206
总站	-8207
感叹	-8208
拆分	-8209
拳头	-8210
指南	-8211
推行	-8212
摆脱	-8213
摩斯	-8214
施工	-8215
旗帜	-8216
无奇	-8217
日记	-8218
星球	-8219
果然	-8220
枫叶	-8221
柱间	-8222
此地	-8223
殿试	-8224
民政	-8225
水量	-8226
永生	-8227
没写	-8228
浓度	-8229
渐渐	-8230
火机	-8231
灵感	-8232
炒面	-8233
版权	-8234
猫猫	-8235
盆地	-8236
监控	-8237
看的	-8238
砍掉	-8239
福音	-8240
穆罕	-8241
粮食	-8242
绘制	-8243
能在	-8244
花钱	-8245
蛤蟆	-8246
血液	-8247
被告	-8248
赞扬	-8249
起点	-8250
趋势	-8251
辜负	-8252
辩论	-8253
选民	-8254
部位	-8255
阵亡	-8256
食材	-8257
黑粉	-8258
▁Sp	-8259
▁一般	-8260
▁公司	-8261
▁尽管	-8262
▁朋友	-8263
▁本来	-8264
不出来	-8265
了一条	-8266
人体的	-8267
任何人	-8268
伐利亚	-8269
众议院	-8270
元一次	-8271
则是对	-8272
刚开始	-8273
十一年	-8274
回收站	-8275
导致的	-8276
年香港	-8277
无关联	-8278
有些人	-8279
来制造	-8280
模一样	-8281
特有的	-8282
生石灰	-8283
的不可	-8284
的日本	-8285
的环境	-8286
的节日	-8287
论文的	-8288
那就是	-8289
唯物主义	-8290
完成任务	-8291
指的是在	-8292
整个世界	-8293
有期徒刑	-8294
格格不入	-8295
让人觉得	-8296
这句话的	-8297
难以理解	-8298
ackground	-8299
//	-8300
Le	-8301
Th	-8302
xs	-8303
▁博	-8304
▁吴	-8305
▁武	-8306
▁祖	-8307
▁罗	-8308
」;	-8309
一号	-8310
两条	-8311
中奖	-8312
乡愁	-8313
了吧	-8314
他又	-8315
储存	-8316
全书	-8317
其在	-8318
内政	-8319
分组	-8320
列颠	-8321
前锋	-8322
勾践	-8323
匪徒	-8324
即时	-8325
变换	-8326
古诗	-8327
古迹	-8328
四级	-8329
因子	-8330
在内	-8331
坏掉	-8332
块钱	-8333
大同	-8334
太差	-8335
太狼	-8336
定了	-8337
室友	-8338
将他	-8339
屏幕	-8340
布局	-8341
庄村	-8342
庖丁	-8343
微笑	-8344
思乡	-8345
戈多	-8346
我国	-8347
戒烟	-8348
投胎	-8349
断句	-8350
无效	-8351
时髦	-8352
昨晚	-8353
有害	-8354
林冲	-8355
枪手	-8356
标记	-8357
标识	-8358
止于	-8359
正规	-8360
泰勒	-8361
流通	-8362
清军	-8363
焚书	-8364
爸妈	-8365
班房	-8366
电流	-8367
瘟疫	-8368
皆为	-8369
皇室	-8370
碎尸	-8371
福尔	-8372
空袭	-8373
粗俗	-8374
群童	-8375
肉末	-8376
脑汁	-8377
花莲	-8378
葬场	-8379
解除	-8380
该庄	-8381
语的	-8382
请假	-8383
近似	-8384
铁粉	-8385
靠谱	-8386
面向	-8387
飞弹	-8388
鲜明	-8389
鸿章	-8390
黑心	-8391
-15	-8392
ons	-8393
ove	-8394
▁An	-8395
▁死亡	-8396
▁老师	-8397
▁高考	-8398
不干净	-8399
与网络	-8400
之一的	-8401
之后就	-8402
企业家	-8403
出生在	-8404
县知县	-8405
发展的	-8406
叠加态	-8407
古兰经	-8408
后参加	-8409
夫斯基	-8410
夸张了	-8411
安乐死	-8412
岁人口	-8413
广场舞	-8414
开发者	-8415
引申为	-8416
戏称为	-8417
收银员	-8418
政治部	-8419
日举行	-8420
时间为	-8421
是形容	-8422
最早的	-8423
有什么	-8424
洗衣机	-8425
清真寺	-8426
的人吃	-8427
的压力	-8428
的基因	-8429
的需求	-8430
立法会	-8431
第三次	-8432
管理的	-8433
紧接着	-8434
能力的	-8435
蒋介石	-8436
蓝精灵	-8437
行为与	-8438
讲述了	-8439
还包括	-8440
进击的	-8441
适用于	-8442
free	-8443
inux	-8444
▁col	-8445
属的动物	-8446
带有一种	-8447
情感上的	-8448
指的是对	-8449
最重要的	-8450
罗马帝国	-8451
自己没有	-8452
这个行为	-8453
这里是指	-8454
,2008	-8455
▁1999	-8456
并不是真的	-8457
的模式产地	-8458
发现了此天体	-8459
该物种的模式产地	-8460
届全国人民代表大会	-8461
,1	-8462
Ad	-8463
EC	-8464
EN	-8465
FC	-8466
co	-8467
▁可	-8468
一件	-8469
一角	-8470
不倒	-8471
不及	-8472
不玩	-8473
业余	-8474
严厉	-8475
丨智	-8476
中书	-8477
为名	-8478
亦为	-8479
优越	-8480
传入	-8481
伤势	-8482
信长	-8483
假币	-8484
入球	-8485
其为	-8486
典型	-8487
剑桥	-8488
华南	-8489
占座	-8490
占用	-8491
厕纸	-8492
厦门	-8493
发烂	-8494
发臭	-8495
可甜	-8496
台灯	-8497
听见	-8498
告别	-8499
和亲	-8500
喝水	-8501
嘉庆	-8502
团购	-8503
在位	-8504
坑儒	-8505
城墙	-8506
宣誓	-8507
导航	-8508
属性	-8509
崇祯	-8510
巴适	-8511
席话	-8512
常被	-8513
幼稚	-8514
开灯	-8515
归属	-8516
归类	-8517
当今	-8518
很水	-8519
德罗	-8520
总局	-8521
总监	-8522
战舰	-8523
抄斩	-8524
拜把	-8525
捐赠	-8526
捧一	-8527
提琴	-8528
教室	-8529
斯巴	-8530
无证	-8531
是人	-8532
晚睡	-8533
最有	-8534
朝阳	-8535
权益	-8536
来回	-8537
枪管	-8538
次子	-8539
武术	-8540
水蛭	-8541
沙雕	-8542
洋屁	-8543
满门	-8544
滨海	-8545
火拼	-8546
爱意	-8547
狗日	-8548
生在	-8549
的亲	-8550
的老	-8551
的花	-8552
直男	-8553
砍价	-8554
祈祷	-8555
糟糕	-8556
红码	-8557
线和	-8558
缺德	-8559
色盲	-8560
菠萝	-8561
话语	-8562
调用	-8563
财经	-8564
赛道	-8565
足协	-8566
踩一	-8567
较少	-8568
辛巴	-8569
还给	-8570
连锁	-8571
道夫	-8572
阿姆	-8573
零线	-8574
高山	-8575
鲁滨	-8576
鹦鹉	-8577
ans	-8578
ini	-8579
▁后来	-8580
▁考试	-8581
▁该地	-8582
▁谐音	-8583
为秋风	-8584
九条命	-8585
交流道	-8586
代表作	-8587
代表着	-8588
会出现	-8589
位截瘫	-8590
体重秤	-8591
健康码	-8592
公狮子	-8593
创始人	-8594
勉强能	-8595
十四年	-8596
原意指	-8597
变形计	-8598
只是在	-8599
可以将	-8600
可以用	-8601
台南市	-8602
后不久	-8603
因为在	-8604
国家和	-8605
堂饭菜	-8606
大白菜	-8607
妻子的	-8608
对我说	-8609
小蝌蚪	-8610
常理的	-8611
建立的	-8612
弱丨智	-8613
当成了	-8614
所破歌	-8615
把自己	-8616
拉肚子	-8617
拟人的	-8618
改成了	-8619
方程式	-8620
是可以	-8621
是用来	-8622
曲解为	-8623
最初的	-8624
本身是	-8625
柠檬精	-8626
治好的	-8627
涨工资	-8628
灰太狼	-8629
烧焦的	-8630
的基本	-8631
的警察	-8632
直播间	-8633
答题卡	-8634
纯路人	-8635
终身为	-8636
蚕宝宝	-8637
识字率	-8638
该句子	-8639
走的人	-8640
超过了	-8641
运营商	-8642
这里说	-8643
闯红灯	-8644
-21)	-8645
1920	-8646
1968	-8647
▁我发现	-8648
▁这里以	-8649
一片雪花	-8650
不出来的	-8651
住了几个	-8652
作者通过	-8653
公共资源	-8654
初中同学	-8655
去掉一个	-8656
发烂发臭	-8657
喜剧效果	-8658
地狱笑话	-8659
城北徐公	-8660
天堂制造	-8661
家电下乡	-8662
少数民族	-8663
层含义是	-8664
工作经验	-8665
年总人口	-8666
底层水域	-8667
形成幽默	-8668
我不做人	-8669
拆弹专家	-8670
新华字典	-8671
无证行医	-8672
早生贵子	-8673
是世界上	-8674
智力低下	-8675
暗示自己	-8676
正反两面	-8677
此句通过	-8678
死去的人	-8679
流浪地球	-8680
满门抄斩	-8681
焚书坑儒	-8682
王老汉在	-8683
王警官的	-8684
理解成了	-8685
电击疗法	-8686
电车难题	-8687
硕士学位	-8688
终身为父	-8689
结婚日期	-8690
综艺节目	-8691
表示自己	-8692
谐音双关	-8693
过河拆桥	-8694
这句话中	-8695
进行调侃	-8696
霍比特人	-8697
高中同学	-8698
align	-8699
▁这句话的	-8700
▁道德绑架	-8701
。1980	-8702
可能是因为	-8703
后参加会试	-8704
夸张的表达	-8705
所以得到了	-8706
暗示了一种	-8707
治好的病人	-8708
的幽默改编	-8709
自嘲的方式	-8710
茅屋为秋风	-8711
选择困难症	-8712
▁这里采用了	-8713
不干净的东西	-8714
带有讽刺意味	-8715
形成幽默效果	-8716
拟人化的表达	-8717
烧焦的鼻毛味	-8718
逐渐发烂发臭	-8719
▁这里的意思是	-8720
产生了幽默效果	-8721
位于该国西南部	-8722
描述了一个看似	-8723
显而易见的事实	-8724
▁这句话的意思是	-8725
茅屋为秋风所破歌	-8726
;0	-8727
de	-8728
ke	-8729
▁&	-8730
不容	-8731
不顾	-8732
东侧	-8733
两万	-8734
两地	-8735
中以	-8736
乐观	-8737
产量	-8738
催化	-8739
先锋	-8740
入境	-8741
兰州	-8742
分出	-8743
分泌	-8744
加深	-8745
县城	-8746
及后	-8747
台办	-8748
吉亚	-8749
名誉	-8750
后卫	-8751
和上	-8752
和马	-8753
哈利	-8754
团结	-8755
在海	-8756
地亚	-8757
声优	-8758
复制	-8759
大喊	-8760
孙子	-8761
宜兰	-8762
尼黑	-8763
层的	-8764
屋顶	-8765
山坡	-8766
巡抚	-8767
得的	-8768
微信	-8769
快的	-8770
忽视	-8771
悬挂	-8772
担当	-8773
提取	-8774
收取	-8775
改组	-8776
族的	-8777
景点	-8778
曾为	-8779
机票	-8780
林子	-8781
标本	-8782
橄榄	-8783
此举	-8784
沉重	-8785
河口	-8786
灾难	-8787
生效	-8788
用手	-8789
直辖	-8790
知府	-8791
离心	-8792
稻草	-8793
竣工	-8794
端的	-8795
答应	-8796
而他	-8797
股权	-8798
至此	-8799
要做	-8800
记得	-8801
该地	-8802
车道	-8803
进去	-8804
遗迹	-8805
钓鱼	-8806
预定	-8807
风力	-8808
(12	-8809
ara	-8810
che	-8811
ger	-8812
per	-8813
ton	-8814
yst	-8815
▁on	-8816
三个月	-8817
不小心	-8818
于同年	-8819
云南省	-8820
伯利亚	-8821
伴随着	-8822
出版的	-8823
发行了	-8824
发言人	-8825
城市的	-8826
基本上	-8827
安徽省	-8828
就读于	-8829
巡洋舰	-8830
德国的	-8831
感受到	-8832
慕尼黑	-8833
提供的	-8834
方向的	-8835
最好的	-8836
有限的	-8837
来描述	-8838
查尔斯	-8839
标准的	-8840
特殊的	-8841
的价格	-8842
的名义	-8843
的父亲	-8844
的选择	-8845
相应的	-8846
空间的	-8847
第一条	-8848
约瑟夫	-8849
设置了	-8850
2019	-8851
olog	-8852
三分之二	-8853
中的人物	-8854
但是由于	-8855
国家公园	-8856
巴伐利亚	-8857
师范大学	-8858
。2002	-8859
位于该国中部	-8860
是中华人民共和国	-8861
)(	-8862
Fe	-8863
TP	-8864
_2	-8865
▁因	-8866
、3	-8867
三亚	-8868
不和	-8869
为期	-8870
举报	-8871
二维	-8872
交战	-8873
人世	-8874
人头	-8875
低俗	-8876
便宜	-8877
公益	-8878
兰卡	-8879
关押	-8880
创业	-8881
前身	-8882
剪刀	-8883
化成	-8884
又叫	-8885
友谊	-8886
口气	-8887
后代	-8888
向东	-8889
向往	-8890
在与	-8891
地主	-8892
多达	-8893
大义	-8894
大埔	-8895
她与	-8896
姊妹	-8897
宁夏	-8898
安纳	-8899
宫廷	-8900
局面	-8901
开枪	-8902
弟子	-8903
待遇	-8904
所作	-8905
托尔	-8906
报时	-8907
换乘	-8908
捷克	-8909
接管	-8910
提交	-8911
播报	-8912
教材	-8913
明代	-8914
是水	-8915
案情	-8916
正统	-8917
武侠	-8918
水上	-8919
沦陷	-8920
流感	-8921
温哥	-8922
溶于	-8923
灰色	-8924
点球	-8925
焦虑	-8926
现已	-8927
电机	-8928
病情	-8929
的王	-8930
等的	-8931
米德	-8932
纸质	-8933
细菌	-8934
缓冲	-8935
置换	-8936
花了	-8937
草原	-8938
莱昂	-8939
街头	-8940
被动	-8941
进展	-8942
连串	-8943
逃亡	-8944
选秀	-8945
金曲	-8946
随时	-8947
预防	-8948
颗粒	-8949
风速	-8950
魔术	-8951
10%	-8952
cop	-8953
oll	-8954
▁男子	-8955
东日本	-8956
几内亚	-8957
又可以	-8958
发布的	-8959
各地的	-8960
年期间	-8961
总督府	-8962
托马斯	-8963
支持者	-8964
救护车	-8965
新台币	-8966
来达到	-8967
演员的	-8968
的一面	-8969
的军事	-8970
的结构	-8971
知识的	-8972
示威者	-8973
社会的	-8974
程度上	-8975
继承人	-8976
英国的	-8977
达成了	-8978
里面的	-8979
颁发的	-8980
1955	-8981
1964	-8982
ress	-8983
电子竞技	-8984
黑龙江省	-8985
▁2001	-8986
之间的矛盾	-8987
在中国大陆	-8988
的一座城市	-8989
罗马天主教	-8990
,9	-8991
An	-8992
GB	-8993
GN	-8994
NH	-8995
ax	-8996
▁k	-8997
▁道	-8998
、2	-8999
一根	-9000
一群	-9001
不被	-9002
世人	-9003
中所	-9004
主观	-9005
之心	-9006
乐器	-9007
他以	-9008
伊尔	-9009
会把	-9010
传送	-9011
依靠	-9012
侦查	-9013
侮辱	-9014
关羽	-9015
写了	-9016
农历	-9017
刻板	-9018
厉害	-9019
县级	-9020
双眼	-9021
只在	-9022
四周	-9023
园区	-9024
复合	-9025
夏威	-9026
外星	-9027
大声	-9028
大海	-9029
天后	-9030
夫的	-9031
女的	-9032
家村	-9033
尔顿	-9034
库尔	-9035
座标	-9036
当家	-9037
影展	-9038
得票	-9039
我想	-9040
房产	-9041
抑制	-9042
拓跋	-9043
接纳	-9044
放松	-9045
斯和	-9046
是其	-9047
晚会	-9048
更好	-9049
月牙	-9050
有线	-9051
检测	-9052
橡胶	-9053
民籍	-9054
水车	-9055
求婚	-9056
沸腾	-9057
泰尔	-9058
洗澡	-9059
活了	-9060
温带	-9061
港铁	-9062
激发	-9063
火影	-9064
琉球	-9065
痕迹	-9066
白人	-9067
相较	-9068
省的	-9069
碰撞	-9070
稳固	-9071
等职	-9072
纳斯	-9073
缓解	-9074
职员	-9075
肤色	-9076
背鳍	-9077
苗栗	-9078
若干	-9079
血压	-9080
认定	-9081
证书	-9082
调换	-9083
象棋	-9084
转任	-9085
轻轻	-9086
迁往	-9087
过期	-9088
里奥	-9089
金斯	-9090
钢铁	-9091
阮福	-9092
限定	-9093
雕塑	-9094
预报	-9095
马丁	-9096
龙的	-9097
(;)	-9098
502	-9099
enn	-9100
mer	-9101
ode	-9102
▁3.	-9103
▁以下	-9104
一直在	-9105
便利店	-9106
其中有	-9107
其中男	-9108
创造出	-9109
十六年	-9110
发表了	-9111
国台办	-9112
在网络	-9113
夏威夷	-9114
安东尼	-9115
容易被	-9116
已经是	-9117
帮助下	-9118
所以有	-9119
收录了	-9120
明显的	-9121
是一家	-9122
是巴西	-9123
更好的	-9124
有效的	-9125
次列车	-9126
留下的	-9127
留学生	-9128
的习惯	-9129
的任务	-9130
知名度	-9131
篮球场	-9132
还有一	-9133
连续剧	-9134
选择了	-9135
陨石坑	-9136
领域的	-9137
了自己的	-9138
保持沉默	-9139
实际情况	-9140
最终导致	-9141
最高法院	-9142
的一个区	-9143
穆罕默德	-9144
职业生涯	-9145
,2006	-9146
▁1998	-9147
。1998	-9148
其中男性为	-9149
1。	-9150
9.	-9151
MO	-9152
▁元	-9153
▁冰	-9154
▁开	-9155
一间	-9156
专利	-9157
中作	-9158
为他	-9159
之称	-9160
乐趣	-9161
也没	-9162
云的	-9163
亲戚	-9164
他就	-9165
会说	-9166
但我	-9167
使者	-9168
侦察	-9169
信任	-9170
假期	-9171
做到	-9172
充分	-9173
光谱	-9174
公务	-9175
公投	-9176
公约	-9177
决心	-9178
分手	-9179
切尔	-9180
劝说	-9181
华北	-9182
取义	-9183
可口	-9184
向北	-9185
向量	-9186
增设	-9187
大门	-9188
天子	-9189
奠基	-9190
学费	-9191
完美	-9192
尼古	-9193
布里	-9194
席位	-9195
康桥	-9196
延迟	-9197
拓扑	-9198
据说	-9199
攻入	-9200
教皇	-9201
无锡	-9202
星号	-9203
普赛	-9204
月中	-9205
月经	-9206
机组	-9207
汉人	-9208
沉迷	-9209
法师	-9210
混双	-9211
热烈	-9212
爬行	-9213
白宫	-9214
的开	-9215
的非	-9216
研制	-9217
纯种	-9218
自从	-9219
虚假	-9220
观赏	-9221
谜语	-9222
起舞	-9223
起诉	-9224
进程	-9225
邮件	-9226
银河	-9227
间接	-9228
随便	-9229
隐瞒	-9230
零售	-9231
面食	-9232
顺治	-9233
预备	-9234
首映	-9235
高空	-9236
-19	-9237
Pro	-9238
VIP	-9239
amp	-9240
▁这段	-9241
上升到	-9242
主义的	-9243
主教练	-9244
什么都	-9245
伪装成	-9246
哈尔滨	-9247
喜欢的	-9248
在此处	-9249
奖最佳	-9250
工作日	-9251
年世界	-9252
旧金山	-9253
是不能	-9254
曾担任	-9255
本来就	-9256
没有了	-9257
注意力	-9258
温哥华	-9259
环形山	-9260
现代的	-9261
的一位	-9262
的关注	-9263
的成功	-9264
的消息	-9265
系列的	-9266
美人鱼	-9267
萨克森	-9268
说自己	-9269
较大的	-9270
食用的	-9271
;0—6	-9272
传说中的	-9273
作为一种	-9274
全国人大	-9275
因为它们	-9276
委员会的	-9277
立法委员	-9278
获得冠军	-9279
background	-9280
%;	-9281
PG	-9282
▁两	-9283
▁艾	-9284
、5	-9285
一是	-9286
不许	-9287
主管	-9288
予以	-9289
五世	-9290
亚科	-9291
优先	-9292
伴随	-9293
但也	-9294
体型	-9295
元件	-9296
光年	-9297
其道	-9298
划归	-9299
动态	-9300
南山	-9301
反驳	-9302
和水	-9303
和解	-9304
咸丰	-9305
品德	-9306
哺乳	-9307
售票	-9308
困扰	-9309
城际	-9310
大连	-9311
定价	-9312
平安	-9313
年有	-9314
引力	-9315
影评	-9316
很高	-9317
得过	-9318
总结	-9319
悬念	-9320
意中	-9321
慢慢	-9322
或许	-9323
战事	-9324
手指	-9325
才华	-9326
打字	-9327
投影	-9328
排放	-9329
提示	-9330
收复	-9331
敲门	-9332
斧头	-9333
斯图	-9334
无聊	-9335
日被	-9336
昆明	-9337
有利	-9338
有权	-9339
服用	-9340
果实	-9341
校友	-9342
法军	-9343
法尔	-9344
海天	-9345
满意	-9346
潮流	-9347
牛津	-9348
疯狂	-9349
相差	-9350
真菌	-9351
磁场	-9352
社团	-9353
筹备	-9354
维拉	-9355
膨胀	-9356
英寸	-9357
蝙蝠	-9358
被送	-9359
该站	-9360
说完	-9361
说过	-9362
车手	-9363
转发	-9364
较小	-9365
部下	-9366
长轴	-9367
集结	-9368
雪人	-9369
魅力	-9370
iki	-9371
ris	-9372
▁Un	-9373
▁太阳	-9374
一些人	-9375
不列颠	-9376
为主的	-9377
二进制	-9378
交汇处	-9379
传佛教	-9380
充电器	-9381
十二月	-9382
县政府	-9383
司令员	-9384
国防部	-9385
多岁的	-9386
多年的	-9387
孝文帝	-9388
对话中	-9389
就成了	-9390
工作室	-9391
年代初	-9392
必要的	-9393
性循环	-9394
故事中	-9395
整体上	-9396
月开始	-9397
氧化二	-9398
活动的	-9399
牧羊犬	-9400
电影节	-9401
的生物	-9402
的美国	-9403
的观点	-9404
相关联	-9405
空手道	-9406
章取义	-9407
第一部	-9408
纪念碑	-9409
良好的	-9410
被誉为	-9411
解读为	-9412
诺贝尔	-9413
赛冠军	-9414
部分的	-9415
都无法	-9416
颗恒星	-9417
(190	-9418
1951	-9419
John	-9420
text	-9421
▁Pro	-9422
光绪二十	-9423
可能导致	-9424
在网络上	-9425
学士学位	-9426
广播电台	-9427
总部位于	-9428
种族歧视	-9429
行政长官	-9430
这个问题	-9431
▁1997	-9432
文化大革命	-9433
热带低气压	-9434
山脉的一部分	-9435
▁colspan	-9436
夫卡是乌克兰的村落	-9437
05	-9438
8.	-9439
BB	-9440
DD	-9441
IV	-9442
af	-9443
cc	-9444
yl	-9445
yn	-9446
▁其	-9447
▁北	-9448
▁叶	-9449
▁某	-9450
、4	-9451
一书	-9452
一声	-9453
七夕	-9454
三位	-9455
上与	-9456
下游	-9457
不受	-9458
不爱	-9459
为由	-9460
之乱	-9461
之事	-9462
习俗	-9463
书本	-9464
交警	-9465
代数	-9466
仪器	-9467
传动	-9468
伯格	-9469
作文	-9470
八字	-9471
兴起	-9472
军委	-9473
剥削	-9474
劫匪	-9475
卡洛	-9476
原文	-9477
发热	-9478
取暖	-9479
向南	-9480
坏事	-9481
填报	-9482
大字	-9483
大骂	-9484
太过	-9485
套餐	-9486
好好	-9487
孙权	-9488
宠物	-9489
寓意	-9490
寺院	-9491
小便	-9492
帮忙	-9493
年才	-9494
弗吉	-9495
感慨	-9496
戴夫	-9497
打死	-9498
抢救	-9499
抵制	-9500
教徒	-9501
无助	-9502
无数	-9503
是大	-9504
是将	-9505
普及	-9506
普拉	-9507
本届	-9508
本片	-9509
析出	-9510
样本	-9511
欺负	-9512
正义	-9513
每月	-9514
比起	-9515
汇率	-9516
汤姆	-9517
洪武	-9518
海湾	-9519
清醒	-9520
温泉	-9521
演义	-9522
火柴	-9523
点燃	-9524
犯了	-9525
病的	-9526
的字	-9527
的家	-9528
的李	-9529
瞄准	-9530
礼拜	-9531
社长	-9532
神的	-9533
突击	-9534
签证	-9535
精确	-9536
纳德	-9537
职棒	-9538
评审	-9539
较多	-9540
遵循	-9541
重力	-9542
阴谋	-9543
陆羽	-9544
限于	-9545
韦尔	-9546
风景	-9547
高祖	-9548
黑洞	-9549
齐国	-9550
-16	-9551
101	-9552
211	-9553
arl	-9554
iku	-9555
ink	-9556
ual	-9557
▁他们	-9558
。16	-9559
一定的	-9560
一年后	-9561
与科学	-9562
制造商	-9563
古希腊	-9564
古老的	-9565
司马迁	-9566
在这一	-9567
在那里	-9568
女歌手	-9569
如果在	-9570
对历史	-9571
将其与	-9572
就开始	-9573
并且在	-9574
当选为	-9575
所属的	-9576
是他的	-9577
是印度	-9578
条件下	-9579
比赛的	-9580
法兰西	-9581
法国的	-9582
波士顿	-9583
浏览器	-9584
的公司	-9585
的情形	-9586
的日子	-9587
的要求	-9588
的计划	-9589
的评价	-9590
的质疑	-9591
知名的	-9592
第三个	-9593
苏维埃	-9594
质量的	-9595
较高的	-9596
这本书	-9597
道德的	-9598
量子化	-9599
领导的	-9600
1942	-9601
1963	-9602
1969	-9603
eter	-9604
ound	-9605
可能会被	-9606
形成一个	-9607
意识形态	-9608
断章取义	-9609
日治时期	-9610
栖息深度	-9611
氧化还原	-9612
的复杂性	-9613
解决方案	-9614
主要分布于	-9615
经验丰富的	-9616
03	-9617
AA	-9618
La	-9619
MP	-9620
TE	-9621
sk	-9622
▁:	-9623
▁她	-9624
三千	-9625
下方	-9626
不停	-9627
两道	-9628
为食	-9629
九月	-9630
也指	-9631
但它	-9632
全身	-9633
出兵	-9634
出土	-9635
出柜	-9636
分散	-9637
刊登	-9638
刘公	-9639
刺杀	-9640
单打	-9641
厚的	-9642
叛军	-9643
同治	-9644
听课	-9645
和尚	-9646
四世	-9647
奖牌	-9648
好看	-9649
学员	-9650
客服	-9651
宰相	-9652
富士	-9653
工地	-9654
应为	-9655
开辟	-9656
强迫	-9657
当事	-9658
彩色	-9659
忠诚	-9660
恭喜	-9661
战死	-9662
手臂	-9663
扮成	-9664
攻势	-9665
政使	-9666
教导	-9667
新婚	-9668
旗舰	-9669
既是	-9670
昨天	-9671
显微	-9672
晚间	-9673
暂停	-9674
最新	-9675
村庄	-9676
来去	-9677
格斯	-9678
水月	-9679
界限	-9680
相机	-9681
看了	-9682
眼中	-9683
积累	-9684
等站	-9685
算命	-9686
网民	-9687
而我	-9688
自尽	-9689
舰只	-9690
落入	-9691
融化	-9692
行车	-9693
西门	-9694
观塘	-9695
诊断	-9696
试探	-9697
超载	-9698
足以	-9699
路灯	-9700
转投	-9701
转播	-9702
进驻	-9703
送花	-9704
金门	-9705
防空	-9706
马力	-9707
黄河	-9708
eat	-9709
ime	-9710
itt	-9711
▁只要	-9712
了这一	-9713
人都是	-9714
克斯坦	-9715
创作的	-9716
前身为	-9717
加特林	-9718
半长轴	-9719
同一天	-9720
后来被	-9721
和中国	-9722
和美国	-9723
和道德	-9724
和铜牌	-9725
圣诞树	-9726
女朋友	-9727
展现出	-9728
年球季	-9729
年轻时	-9730
并获得	-9731
感兴趣	-9732
找到了	-9733
掉下来	-9734
有人口	-9735
服务的	-9736
未来可	-9737
概念与	-9738
狙击手	-9739
环境的	-9740
的人群	-9741
的叫声	-9742
的拼音	-9743
的某些	-9744
的生理	-9745
的简称	-9746
的统治	-9747
相反的	-9748
社会上	-9749
经典的	-9750
经历了	-9751
结构的	-9752
编号为	-9753
老师的	-9754
行为或	-9755
表现为	-9756
证明了	-9757
误解了	-9758
读者的	-9759
都是由	-9760
鲈形目	-9761
1953	-9762
1962	-9763
▁秦始皇	-9764
两个人的	-9765
什么都不	-9766
共有人口	-9767
在中文里	-9768
媒体报道	-9769
所以如果	-9770
搜索引擎	-9771
操作系统	-9772
根据美国	-9773
每个人的	-9774
而实际上	-9775
行政区划	-9776
西伯利亚	-9777
鲜明对比	-9778
。1992	-9779
侦探事务所	-9780
实际上是指	-9781
突然出现在	-9782
center	-9783
!」	-9784
(、	-9785
04	-9786
EL	-9787
ww	-9788
▁)	-9789
▁克	-9790
▁哈	-9791
▁米	-9792
▁赵	-9793
不分	-9794
不去	-9795
东区	-9796
中环	-9797
也叫	-9798
亚当	-9799
亮相	-9800
人力	-9801
休闲	-9802
会社	-9803
伯克	-9804
供奉	-9805
保卫	-9806
倒立	-9807
停电	-9808
元音	-9809
光阴	-9810
免疫	-9811
公子	-9812
公认	-9813
别国	-9814
即在	-9815
向他	-9816
嘴里	-9817
团伙	-9818
围巾	-9819
在第	-9820
奖的	-9821
姥姥	-9822
子头	-9823
宾馆	-9824
对面	-9825
已故	-9826
帕拉	-9827
平行	-9828
广岛	-9829
底洞	-9830
底线	-9831
建有	-9832
怎样	-9833
截肢	-9834
手铐	-9835
打出	-9836
投诉	-9837
捉迷	-9838
捡到	-9839
掉头	-9840
揭露	-9841
摸鱼	-9842
政变	-9843
新区	-9844
新城	-9845
新星	-9846
无心	-9847
晶体	-9848
此一	-9849
武昌	-9850
死掉	-9851
流经	-9852
熔炉	-9853
牙刷	-9854
牧师	-9855
生肖	-9856
的方	-9857
看破	-9858
砚池	-9859
社畜	-9860
福州	-9861
福气	-9862
秩序	-9863
童军	-9864
管制	-9865
精通	-9866
缺失	-9867
网吧	-9868
考了	-9869
职能	-9870
背诵	-9871
脂肪	-9872
自拍	-9873
英属	-9874
表白	-9875
该剧	-9876
说了	-9877
贫困	-9878
越王	-9879
过一	-9880
违规	-9881
重的	-9882
野生	-9883
镜花	-9884
长春	-9885
问道	-9886
隔绝	-9887
飞快	-9888
驾崩	-9889
-14	-9890
://	-9891
ace	-9892
ade	-9893
aul	-9894
htt	-9895
ili	-9896
▁上班	-9897
▁英国	-9898
▁警方	-9899
与人类	-9900
也因此	-9901
了一份	-9902
以人为	-9903
但其实	-9904
关系中	-9905
十八年	-9906
只眼睛	-9907
向前冲	-9908
在这种	-9909
地球人	-9910
已经在	-9911
带来了	-9912
成功了	-9913
我自己	-9914
捉迷藏	-9915
控制的	-9916
是世界	-9917
是基于	-9918
本来是	-9919
构成的	-9920
漫画家	-9921
玛利亚	-9922
现有的	-9923
的人数	-9924
的地理	-9925
的大型	-9926
突出了	-9927
立法院	-9928
翰林院	-9929
蒂利亚	-9930
误认为	-9931
说再见	-9932
进入了	-9933
违背了	-9934
1967	-9935
5000	-9936
YouT	-9937
ical	-9938
刻板印象	-9939
年毕业于	-9940
行政中心	-9941
语言上的	-9942
阿姆斯特	-9943
高等数学	-9944
ernet	-9945
。1991	-9946
中国科学院	-9947
之间的关系	-9948
元一次方程	-9949
农村居民点	-9950
指的是一种	-9951
是不存在的	-9952
是位于美国	-9953
银牌和铜牌	-9954
第一次世界大战	-9955
为辐鳍鱼纲鲈形目	-9956
重点文物保护单位	-9957
-6	-9958
BO	-9959
JK	-9960
SO	-9961
Sb	-9962
jk	-9963
ru	-9964
ts	-9965
▁别	-9966
。2	-9967
一律	-9968
下有	-9969
中级	-9970
久别	-9971
久的	-9972
了你	-9973
人权	-9974
人群	-9975
但这	-9976
使他	-9977
信奉	-9978
农场	-9979
到高	-9980
前十	-9981
动脉	-9982
单车	-9983
卸任	-9984
压路	-9985
发笑	-9986
可不	-9987
可用	-9988
后会	-9989
含金	-9990
和在	-9991
和新	-9992
哑人	-9993
喷射	-9994
四下	-9995
国共	-9996
在对	-9997
城门	-9998
塞罗	-9999
夏侯	-10000
头上	-10001
契约	-10002
安县	-10003
安妮	-10004
实质	-10005
宫殿	-10006
尼泊	-10007
州立	-10008
巴拿	-10009
平常	-10010
并为	-10011
并有	-10012
底下	-10013
延安	-10014
开业	-10015
引出	-10016
弗兰	-10017
强壮	-10018
性本	-10019
恶魔	-10020
愚公	-10021
支线	-10022
政务	-10023
文言	-10024
斑点	-10025
是四	-10026
是很	-10027
机智	-10028
极大	-10029
某事	-10030
椭圆	-10031
水准	-10032
永乐	-10033
法人	-10034
法术	-10035
洛夫	-10036
派人	-10037
涟漪	-10038
清廷	-10039
满腹	-10040
激进	-10041
物资	-10042
特质	-10043
睡了	-10044
神圣	-10045
竞赛	-10046
童年	-10047
绞尽	-10048
绷带	-10049
编译	-10050
缴械	-10051
羊村	-10052
而无	-10053
耶尔	-10054
肉卷	-10055
脱欧	-10056
薯片	-10057
衰退	-10058
袜子	-10059
装的	-10060
褐色	-10061
要在	-10062
误将	-10063
诸如	-10064
负罪	-10065
还挺	-10066
远的	-10067
部署	-10068
钱眼	-10069
防卫	-10070
高铁	-10071
黄盖	-10072
龙井	-10073
-17	-10074
350	-10075
4.5	-10076
ild	-10077
ros	-10078
▁心脏	-10079
▁第一	-10080
不明白	-10081
中作乐	-10082
也开始	-10083
了中国	-10084
五小时	-10085
休息日	-10086
出入口	-10087
割草机	-10088
单纯的	-10089
即使在	-10090
压路机	-10091
同时在	-10092
和妈妈	-10093
和矛盾	-10094
唐三藏	-10095
在面对	-10096
天工作	-10097
季后赛	-10098
小朋友	-10099
尼泊尔	-10100
已经被	-10101
影响了	-10102
想象力	-10103
戏谑地	-10104
无害的	-10105
是网络	-10106
更高的	-10107
有一定	-10108
本地区	-10109
本是同	-10110
李鸿章	-10111
某个人	-10112
毛利率	-10113
水龙头	-10114
流浪汉	-10115
消防栓	-10116
灭六国	-10117
父母的	-10118
狗都不	-10119
理事会	-10120
的奇妙	-10121
的心态	-10122
的心理	-10123
的本意	-10124
的机票	-10125
的版本	-10126
的笑话	-10127
的长度	-10128
的隐喻	-10129
目标是	-10130
等人的	-10131
聋哑人	-10132
菲尔德	-10133
观测到	-10134
讽刺性	-10135
语境下	-10136
跳房子	-10137
重庆市	-10138
骨子里	-10139
1965	-10140
▁Int	-10141
二氧化碳	-10142
传统观念	-10143
则是一个	-10144
台风警报	-10145
哈姆雷特	-10146
圣诞老人	-10147
就是上帝	-10148
平平无奇	-10149
故意制造	-10150
氧化二氮	-10151
甲级联赛	-10152
电子游戏	-10153
绞尽脑汁	-10154
苦中作乐	-10155
观音菩萨	-10156
躺在床上	-10157
通过某种	-10158
黑白两道	-10159
,2013	-10160
ilver	-10161
型电力机车	-10162
实际上是对	-10163
届全国政协	-10164
的方式表达	-10165
这里说的是	-10166
通过这种方式	-10167
)」	-10168
2。	-10169
_3	-10170
ck	-10171
▁+	-10172
▁i	-10173
▁宋	-10174
▁弱	-10175
▁贝	-10176
一口	-10177
一整	-10178
一鸭	-10179
三长	-10180
不吐	-10181
丝剥	-10182
两短	-10183
为新	-10184
主事	-10185
之大	-10186
之女	-10187
二月	-10188
二象	-10189
京师	-10190
代孕	-10191
传言	-10192
作物	-10193
例外	-10194
偷懒	-10195
克的	-10196
党委	-10197
内个	-10198
内在	-10199
出轨	-10200
刈麦	-10201
刹车	-10202
刺猿	-10203
剧团	-10204
割腕	-10205
劫持	-10206
华丽	-10207
卡特	-10208
厂商	-10209
反向	-10210
反孔	-10211
古人	-10212
史料	-10213
周恩	-10214
品味	-10215
啾啾	-10216
喇嘛	-10217
嘌呤	-10218
在凶	-10219
在被	-10220
处在	-10221
复读	-10222
大官	-10223
大爷	-10224
天赋	-10225
太祖	-10226
奶狗	-10227
妖除	-10228
存了	-10229
存放	-10230
学车	-10231
它与	-10232
就此	-10233
山上	-10234
平息	-10235
幽王	-10236
座位	-10237
微商	-10238
德榜	-10239
心吊	-10240
想像	-10241
成化	-10242
战中	-10243
手办	-10244
扩充	-10245
护卫	-10246
抱过	-10247
掌控	-10248
放牛	-10249
放置	-10250
教友	-10251
整理	-10252
施行	-10253
映射	-10254
是多	-10255
暗恋	-10256
更高	-10257
月任	-10258
服饰	-10259
李氏	-10260
杠精	-10261
条纹	-10262
查重	-10263
核舟	-10264
格陵	-10265
框架	-10266
死路	-10267
母舰	-10268
氨基	-10269
油大	-10270
油精	-10271
泻药	-10272
洪水	-10273
海盗	-10274
清水	-10275
火圈	-10276
火星	-10277
火轮	-10278
灭国	-10279
烧脑	-10280
烫伤	-10281
爽身	-10282
物化	-10283
猫叫	-10284
生意	-10285
的梗	-10286
相悖	-10287
真鞋	-10288
着我	-10289
离魂	-10290
突厥	-10291
童装	-10292
红楼	-10293
约分	-10294
经纶	-10295
经费	-10296
罪行	-10297
美猴	-10298
老刘	-10299
考证	-10300
而有	-10301
肺片	-10302
脑梗	-10303
脑瘫	-10304
航站	-10305
茨基	-10306
蒙德	-10307
虚词	-10308
蛔虫	-10309
被指	-10310
西去	-10311
语义	-10312
躺平	-10313
转型	-10314
过滤	-10315
这就	-10316
逝者	-10317
配角	-10318
钱了	-10319
长生	-10320
阵地	-10321
隐私	-10322
雎鸠	-10323
霸打	-10324
领队	-10325
驾鹤	-10326
"("	-10327
")。	-10328
112	-10329
eth	-10330
▁al	-10331
▁关于	-10332
▁句子	-10333
▁嘲讽	-10334
▁小红	-10335
▁既然	-10336
▁用了	-10337
▁男生	-10338
一席话	-10339
一直到	-10340
不争气	-10341
不文明	-10342
与讽刺	-10343
丝剥茧	-10344
个半藏	-10345
为人知	-10346
买彩票	-10347
了一岁	-10348
二象性	-10349
人作案	-10350
亿公里	-10351
会拆台	-10352
做的面	-10353
冷知识	-10354
分裂出	-10355
剩下的	-10356
功德箱	-10357
卷考试	-10358
原有的	-10359
去的是	-10360
又称为	-10361
反其道	-10362
反转了	-10363
句中的	-10364
叫家长	-10365
后来在	-10366
命通关	-10367
和人口	-10368
和平鸽	-10369
和无奈	-10370
和香蕉	-10371
回答者	-10372
坟冒烟	-10373
天津市	-10374
太平间	-10375
女大三	-10376
妖除魔	-10377
宇宙中	-10378
家长对	-10379
小奶狗	-10380
小学生	-10381
希特勒	-10382
年成为	-10383
康师傅	-10384
彩虹屁	-10385
很容易	-10386
德国人	-10387
忽略了	-10388
思想家	-10389
战争的	-10390
所以把	-10391
手起家	-10392
打断你	-10393
把他们	-10394
拜把子	-10395
提到的	-10396
文学家	-10397
新英雄	-10398
旗下的	-10399
日元贵	-10400
日凌晨	-10401
日方舟	-10402
是当时	-10403
是成语	-10404
显微镜	-10405
村群童	-10406
来比喻	-10407
构成了	-10408
格陵兰	-10409
案发现	-10410
棺材板	-10411
死之前	-10412
没想到	-10413
河南人	-10414
洒水车	-10415
洗砚池	-10416
灯是否	-10417
烽火戏	-10418
爽身粉	-10419
理解了	-10420
甘肃省	-10421
白萝卜	-10422
的个人	-10423
的传统	-10424
的反讽	-10425
的反转	-10426
的字面	-10427
的戏谑	-10428
的比赛	-10429
的英文	-10430
的轻松	-10431
的风格	-10432
盐可甜	-10433
睡的人	-10434
破案率	-10435
种豌豆	-10436
组成了	-10437
而行之	-10438
聋警察	-10439
自嘲和	-10440
自身的	-10441
茨海默	-10442
莆田货	-10443
营造了	-10444
补什么	-10445
见上帝	-10446
观刈麦	-10447
认错了	-10448
让自己	-10449
讲述者	-10450
语言学	-10451
豹子头	-10452
踩碎了	-10453
转移到	-10454
辽宁省	-10455
这个梗	-10456
这首歌	-10457
铁路的	-10458
闪光点	-10459
阿尔巴	-10460
零花钱	-10461
青春的	-10462
青龙山	-10463
风凉话	-10464
风油精	-10465
高尔夫	-10466
鲁滨逊	-10467
▁1.'	-10468
▁会不会	-10469
▁前半句	-10470
▁小明在	-10471
▁引用了	-10472
▁我觉得	-10473
▁拖延症	-10474
▁敬老院	-10475
▁运用了	-10476
▁这里指	-10477
一点客观	-10478
三国演义	-10479
不会说话	-10480
不相往来	-10481
主教座堂	-10482
人在死亡	-10483
但这里的	-10484
低年级的	-10485
低级趣味	-10486
体育老师	-10487
勉强能冲	-10488
双重否定	-10489
反孔精英	-10490
反映出对	-10491
只会让你	-10492
可能暗指	-10493
后半句却	-10494
和幽默的	-10495
四下无人	-10496
四十大盗	-10497
在凶器上	-10498
塑料制品	-10499
多活十年	-10500
夫妻肺片	-10501
孤独一生	-10502
宽大处理	-10503
寒假作业	-10504
将在明天	-10505
小心地滑	-10506
就像海绵	-10507
带着手套	-10508
建筑风格	-10509
式的幽默	-10510
心理委员	-10511
成功之母	-10512
所以这个	-10513
手术成功	-10514
扫黄行动	-10515
抽丝剥茧	-10516
掉一千人	-10517
播放恐怖	-10518
文化遗产	-10519
无法访问	-10520
既可以指	-10521
是第一个	-10522
服从调剂	-10523
本指的是	-10524
来去之间	-10525
来表达对	-10526
洛伦兹力	-10527
活着的人	-10528
满腹经纶	-10529
特警队员	-10530
狗都不玩	-10531
王老汉的	-10532
生而为人	-10533
百年树人	-10534
的严重性	-10535
的最后一	-10536
社交媒体	-10537
简单模式	-10538
精卫填海	-10539
网络社区	-10540
而在这里	-10541
脉动瓶子	-10542
西方国家	-10543
视力检查	-10544
请假理由	-10545
谁能想到	-10546
踩一捧一	-10547
这个成语	-10548
这句话将	-10549
这句话用	-10550
这种反差	-10551
这里谐音	-10552
逻辑矛盾	-10553
镜花水月	-10554
食人酋长	-10555
食堂饭菜	-10556
驾鹤西去	-10557
黑白电视	-10558
1,000	-10559
Steam	-10560
color	-10561
ction	-10562
▁一语双关	-10563
▁双向奔赴	-10564
▁恐怖分子	-10565
▁我的世界	-10566
▁这是通过	-10567
▁这里借用	-10568
▁这里用了	-10569
。1945	-10570
。1950	-10571
但被误解为	-10572
全世界一半	-10573
十年脑溢血	-10574
双关语类比	-10575
听起来像是	-10576
和初中同学	-10577
在网络用语	-10578
女生向前冲	-10579
带有幽默感	-10580
幽默的手法	-10581
戏谑的方式	-10582
所以这句话	-10583
是一颗恒星	-10584
是因为不想	-10585
是网络用语	-10586
有两个意思	-10587
留下了指纹	-10588
的奇妙冒险	-10589
秦始皇统一	-10590
简单的数学	-10591
能不能不要	-10592
荒诞的效果	-10593
讽刺了一些	-10594
讽刺的意味	-10595
讽刺的效果	-10596
进行了类比	-10597
量子叠加态	-10598
阿尔茨海默	-10599
▁这句话中的	-10600
▁这句话利用	-10601
产生了幽默感	-10602
低年级的同学	-10603
反其道而行之	-10604
吃什么补什么	-10605
在这里指的是	-10606
强烈的反差和	-10607
形成了幽默的	-10608
影院工作人员	-10609
故意在凶器上	-10610
是一种夸张和	-10611
氧化还原反应	-10612
被治好的病人	-10613
这里一语双关	-10614
集团有限公司	-10615
顾客就是上帝	-10616
▁这句话借用了	-10617
幽默地表达了对	-10618
杀不死你的东西	-10619
进行双关语类比	-10620
▁这句话可能是在	-10621
▁这句话通过类比	-10622
因此有了这个结果	-10623
斯德哥尔摩综合征	-10624
▁这句话用幽默的方式	-10625
中华人民共和国成立后	-10626
▁这个笑话巧妙地利用了	-10627
描述了一个看似荒谬的情境	-10628
06	-10629
5"	-10630
ae	-10631
ba	-10632
cl	-10633
uk	-10634
▁要	-10635
。3	-10636
下列	-10637
严谨	-10638
临床	-10639
他不	-10640
像素	-10641
公署	-10642
关西	-10643
其间	-10644
军政	-10645
军方	-10646
刚果	-10647
别的	-10648
南下	-10649
去做	-10650
参见	-10651
变更	-10652
号称	-10653
各大	-10654
同期	-10655
君士	-10656
在上	-10657
在外	-10658
坦丁	-10659
士革	-10660
备受	-10661
复仇	-10662
大大	-10663
失利	-10664
学部	-10665
客机	-10666
密西	-10667
寡妇	-10668
山口	-10669
工党	-10670
巴勒	-10671
希尔	-10672
年因	-10673
年春	-10674
感冒	-10675
戈尔	-10676
所辖	-10677
拜占	-10678
放出	-10679
断层	-10680
晋升	-10681
暗杀	-10682
曾与	-10683
本部	-10684
校舍	-10685
沙漠	-10686
活性	-10687
混凝	-10688
牧区	-10689
田径	-10690
疼痛	-10691
登堡	-10692
省份	-10693
硬件	-10694
确立	-10695
神社	-10696
种种	-10697
策划	-10698
繁忙	-10699
织田	-10700
给事	-10701
绿灯	-10702
能否	-10703
自大	-10704
舆论	-10705
芬奇	-10706
菲尔	-10707
衰变	-10708
诺夫	-10709
谢尔	-10710
路德	-10711
辞去	-10712
进化	-10713
进球	-10714
通行	-10715
那是	-10716
阐述	-10717
驻扎	-10718
验尸	-10719
,11	-10720
240	-10721
ile	-10722
org	-10723
▁14	-10724
▁我们	-10725
▁时间	-10726
▁本鱼	-10727
▁经过	-10728
一般指	-10729
为主要	-10730
任务的	-10731
会产生	-10732
会因为	-10733
其中一	-10734
具体的	-10735
周恩来	-10736
太阳系	-10737
子公司	-10738
年统计	-10739
开发的	-10740
当中的	-10741
我们的	-10742
拍摄的	-10743
推出了	-10744
放弃了	-10745
政治家	-10746
是一所	-10747
机动车	-10748
生长在	-10749
的技术	-10750
的描述	-10751
的方向	-10752
的话语	-10753
直接的	-10754
省道台	-10755
美术馆	-10756
肉食性	-10757
被称作	-10758
阿拉斯	-10759
非线性	-10760
香港的	-10761
Game	-10762
ward	-10763
▁第一个	-10764
以色列人	-10765
半长轴为	-10766
君士坦丁	-10767
天气预报	-10768
完全不同	-10769
族自治区	-10770
朝鲜半岛	-10771
离心率为	-10772
行政单位	-10773
角色扮演	-10774
ivers	-10775
。1946	-10776
委员会主席	-10777
特别行政区	-10778
加利福尼亚州	-10779
YouTube	-10780
AK	-10781
AV	-10782
Ap	-10783
CN	-10784
PP	-10785
▁徐	-10786
▁曹	-10787
▁特	-10788
一套	-10789
一等	-10790
三次	-10791
不大	-10792
不论	-10793
与新	-10794
东汉	-10795
两大	-10796
中常	-10797
二百	-10798
伊士	-10799
但当	-10800
其顿	-10801
初始	-10802
参演	-10803
口中	-10804
口罩	-10805
只需	-10806
各有	-10807
吾尔	-10808
团长	-10809
在南	-10810
场面	-10811
坐落	-10812
垒打	-10813
太宗	-10814
奥古	-10815
姐妹	-10816
小牛	-10817
局势	-10818
带到	-10819
年为	-10820
年来	-10821
并对	-10822
往返	-10823
得主	-10824
德基	-10825
恐慌	-10826
患上	-10827
悬崖	-10828
抛物	-10829
抨击	-10830
担忧	-10831
拜访	-10832
捍卫	-10833
提案	-10834
收容	-10835
改由	-10836
无常	-10837
案例	-10838
此前	-10839
沃尔	-10840
流放	-10841
深夜	-10842
清洁	-10843
玉米	-10844
界面	-10845
的四	-10846
监制	-10847
真是	-10848
短篇	-10849
石碑	-10850
神学	-10851
突发	-10852
米亚	-10853
纺织	-10854
缺陷	-10855
罪名	-10856
老大	-10857
者们	-10858
聚会	-10859
聚居	-10860
范畴	-10861
莲花	-10862
被俘	-10863
规格	-10864
警备	-10865
调任	-10866
负担	-10867
辆车	-10868
运会	-10869
远东	-10870
配偶	-10871
重修	-10872
长寿	-10873
难民	-10874
餐馆	-10875
III	-10876
ica	-10877
ike	-10878
▁is	-10879
专注于	-10880
为香港	-10881
也成为	-10882
他人的	-10883
传教士	-10884
但是他	-10885
作品中	-10886
停车场	-10887
出现于	-10888
出身于	-10889
周幽王	-10890
回到了	-10891
因此被	-10892
在这些	-10893
在进行	-10894
地方的	-10895
大奖赛	-10896
巴拿马	-10897
年左右	-10898
总司令	-10899
所学校	-10900
播出的	-10901
教育和	-10902
显示出	-10903
气体的	-10904
消费者	-10905
的国际	-10906
的妻子	-10907
的理论	-10908
的肌肉	-10909
的运动	-10910
目的地	-10911
看上去	-10912
研究员	-10913
站位于	-10914
经历过	-10915
这一点	-10916
阿尔及	-10917
麦当劳	-10918
1933	-10919
="5"	-10920
ance	-10921
▁历史上	-10922
在互联网	-10923
大学教授	-10924
广播公司	-10925
斯里兰卡	-10926
是不可能	-10927
最著名的	-10928
看起来像	-10929
裔美国人	-10930
这个说法	-10931
部副部长	-10932
3,600	-10933
。1996	-10934
▁Count	-10935
位于该国东北部	-10936
的轨道半长轴为	-10937
年夏季奥林匹克运动会	-10938
(7	-10939
08	-10940
Am	-10941
me	-10942
▁或	-10943
▁达	-10944
▁霍	-10945
。)	-10946
一期	-10947
不应	-10948
专科	-10949
中和	-10950
中指	-10951
中等	-10952
为我	-10953
交叉	-10954
享有	-10955
人都	-10956
介于	-10957
他从	-10958
他和	-10959
会面	-10960
偏见	-10961
党籍	-10962
再有	-10963
写真	-10964
冷漠	-10965
列宁	-10966
北上	-10967
千万	-10968
华东	-10969
原创	-10970
又能	-10971
发掘	-10972
吉斯	-10973
名言	-10974
启发	-10975
和我	-10976
哪里	-10977
在前	-10978
型态	-10979
基尔	-10980
外来	-10981
大军	-10982
大理	-10983
太郎	-10984
头条	-10985
女士	-10986
如人	-10987
学说	-10988
官职	-10989
对她	-10990
射入	-10991
就任	-10992
局部	-10993
师长	-10994
干事	-10995
平凡	-10996
年末	-10997
幼儿	-10998
应付	-10999
弯曲	-11000
归结	-11001
当上	-11002
很差	-11003
徒弟	-11004
总体	-11005
战机	-11006
战绩	-11007
手腕	-11008
打造	-11009
据点	-11010
掩饰	-11011
旁边	-11012
族长	-11013
无所	-11014
普京	-11015
曾有	-11016
机动	-11017
格局	-11018
氢气	-11019
水土	-11020
沿用	-11021
混音	-11022
牛肉	-11023
王室	-11024
环节	-11025
生动	-11026
男友	-11027
的猫	-11028
相提	-11029
组长	-11030
经书	-11031
给出	-11032
编制	-11033
罗拉	-11034
美丽	-11035
翌日	-11036
自主	-11037
节点	-11038
英九	-11039
草书	-11040
草案	-11041
著称	-11042
西湖	-11043
诺伊	-11044
调节	-11045
赔偿	-11046
车体	-11047
轻易	-11048
输了	-11049
郭德	-11050
重重	-11051
铸造	-11052
阳性	-11053
阿布	-11054
集的	-11055
雕像	-11056
音节	-11057
顶尖	-11058
首张	-11059
鲁豫	-11060
0.5	-11061
118	-11062
bil	-11063
ren	-11064
ype	-11065
▁UA	-11066
也不能	-11067
他开始	-11068
会变成	-11069
但后来	-11070
准决赛	-11071
动作的	-11072
参赛者	-11073
发展出	-11074
合理的	-11075
吉他手	-11076
吉普赛	-11077
在世界	-11078
在欧洲	-11079
多样性	-11080
大家都	-11081
孟加拉	-11082
影响到	-11083
意外的	-11084
手上的	-11085
排名第	-11086
文化和	-11087
斯巴达	-11088
杀死了	-11089
极大的	-11090
混凝土	-11091
的口号	-11092
的就是	-11093
的成分	-11094
突破了	-11095
给事中	-11096
维吾尔	-11097
菲利普	-11098
身上的	-11099
运动的	-11100
违反了	-11101
陷入了	-11102
与此同时	-11103
儒家思想	-11104
历史学家	-11105
发现自己	-11106
是指一种	-11107
电视动画	-11108
组成部分	-11109
联赛冠军	-11110
ystem	-11111
。1949	-11112
。1995	-11113
01	-11114
02	-11115
by	-11116
▁莫	-11117
三甲	-11118
上空	-11119
不服	-11120
东路	-11121
中对	-11122
今属	-11123
依旧	-11124
偶尔	-11125
全场	-11126
冷淡	-11127
别墅	-11128
制订	-11129
务段	-11130
动工	-11131
区和	-11132
十万	-11133
县长	-11134
句中	-11135
呼应	-11136
和约	-11137
和高	-11138
哈佛	-11139
回合	-11140
在向	-11141
在我	-11142
塔基	-11143
外线	-11144
头衔	-11145
她是	-11146
宇文	-11147
实用	-11148
富兰	-11149
将该	-11150
工藤	-11151
已在	-11152
已成	-11153
布兰	-11154
年及	-11155
影射	-11156
德克	-11157
护照	-11158
报复	-11159
控诉	-11160
收获	-11161
文本	-11162
文生	-11163
无忌	-11164
日子	-11165
时在	-11166
明明	-11167
景象	-11168
曲线	-11169
末端	-11170
板桥	-11171
株式	-11172
此事	-11173
汉口	-11174
热的	-11175
狼的	-11176
瑞拉	-11177
电磁	-11178
画作	-11179
的比	-11180
的词	-11181
监视	-11182
睡眠	-11183
破产	-11184
祠堂	-11185
组的	-11186
绝了	-11187
缺点	-11188
舅舅	-11189
船厂	-11190
见面	-11191
角逐	-11192
译名	-11193
跌落	-11194
路面	-11195
转乘	-11196
软条	-11197
运转	-11198
迪斯	-11199
郑州	-11200
野战	-11201
陛下	-11202
领养	-11203
马上	-11204
,12	-11205
,20	-11206
Com	-11207
Mic	-11208
ane	-11209
ash	-11210
ett	-11211
lex	-11212
▁同年	-11213
不可靠	-11214
不完整	-11215
主题曲	-11216
丽莎白	-11217
事件与	-11218
以外的	-11219
公里处	-11220
出来了	-11221
则表示	-11222
制造厂	-11223
加深了	-11224
十字架	-11225
即使是	-11226
只有在	-11227
喜欢在	-11228
固定的	-11229
大家的	-11230
大楼的	-11231
安德鲁	-11232
就像是	-11233
年加入	-11234
年日本	-11235
年正式	-11236
年获得	-11237
战列舰	-11238
战斗中	-11239
拜占庭	-11240
接下来	-11241
是朝鲜	-11242
是由于	-11243
是韩国	-11244
汉朝的	-11245
流行病	-11246
生产的	-11247
电子书	-11248
的信息	-11249
的区域	-11250
的安全	-11251
的病人	-11252
的词语	-11253
监狱里	-11254
科进士	-11255
第十八	-11256
纽约州	-11257
经常被	-11258
而成的	-11259
被开除	-11260
观察到	-11261
音乐会	-11262
马其顿	-11263
100%	-11264
1938	-11265
ital	-11266
、21-	-11267
世界上的	-11268
了一系列	-11269
因为没有	-11270
太阳黑子	-11271
年世界杯	-11272
数学中的	-11273
普通高中	-11274
株式会社	-11275
流行音乐	-11276
相声演员	-11277
▁with	-11278
日常生活中	-11279
西藏自治区	-11280
nowiki	-11281
silver	-11282
分布于南美洲	-11283
全国重点文物保护单位	-11284
</	-11285
De	-11286
IT	-11287
OM	-11288
▁e	-11289
▁桥	-11290
▁每	-11291
▁维	-11292
▁萨	-11293
▁许	-11294
▁重	-11295
▁除	-11296
一枚	-11297
三级	-11298
上杉	-11299
上校	-11300
下旬	-11301
不像	-11302
不曾	-11303
不甘	-11304
不行	-11305
丢失	-11306
中亚	-11307
中原	-11308
中场	-11309
中立	-11310
主编	-11311
举手	-11312
乐园	-11313
也为	-11314
也很	-11315
买了	-11316
争吵	-11317
五大	-11318
交由	-11319
亦在	-11320
以致	-11321
伦斯	-11322
全年	-11323
全数	-11324
全程	-11325
共鸣	-11326
写成	-11327
出卖	-11328
出名	-11329
切除	-11330
加了	-11331
加分	-11332
加快	-11333
匹马	-11334
去年	-11335
去除	-11336
反击	-11337
右手	-11338
各项	-11339
向上	-11340
喝了	-11341
噶尔	-11342
因应	-11343
园丁	-11344
外围	-11345
姿态	-11346
安娜	-11347
展出	-11348
帕尔	-11349
当初	-11350
很像	-11351
心动	-11352
必定	-11353
放送	-11354
旋律	-11355
时因	-11356
时态	-11357
是种	-11358
是说	-11359
显性	-11360
月刊	-11361
木兰	-11362
极具	-11363
民同	-11364
水是	-11365
沉积	-11366
河东	-11367
沼泽	-11368
沿线	-11369
注重	-11370
泽西	-11371
漂流	-11372
炮塔	-11373
狱警	-11374
猜测	-11375
猴子	-11376
疑惑	-11377
疫苗	-11378
症的	-11379
瘫痪	-11380
的球	-11381
直流	-11382
硬盘	-11383
祖籍	-11384
私密	-11385
称谓	-11386
红包	-11387
终身	-11388
缩小	-11389
罗曼	-11390
耶夫	-11391
聘请	-11392
背叛	-11393
舌头	-11394
艰辛	-11395
苏州	-11396
荒唐	-11397
莱斯	-11398
藏在	-11399
表情	-11400
起兵	-11401
起草	-11402
路的	-11403
车型	-11404
远远	-11405
酒杯	-11406
里约	-11407
长崎	-11408
隋朝	-11409
随之	-11410
鞑靼	-11411
饮水	-11412
马大	-11413
105	-11414
125	-11415
360	-11416
der	-11417
ose	-11418
▁今日	-11419
▁原来	-11420
▁第二	-11421
▁随着	-11422
上签字	-11423
不一样	-11424
不一致	-11425
不久后	-11426
不过在	-11427
个国家	-11428
临死前	-11429
乔治亚	-11430
书写的	-11431
仍然是	-11432
决定将	-11433
加勒比	-11434
十五年	-11435
反对派	-11436
可分为	-11437
合唱团	-11438
后成为	-11439
在学校	-11440
基础上	-11441
局局长	-11442
应用于	-11443
庞大的	-11444
无法被	-11445
普通的	-11446
有一些	-11447
的人类	-11448
的传说	-11449
的出现	-11450
的建议	-11451
的愿望	-11452
社会对	-11453
简称为	-11454
结束时	-11455
绕太阳	-11456
背景下	-11457
能够在	-11458
萨斯州	-11459
这一个	-11460
陆战队	-11461
(21-	-11462
1500	-11463
1936	-11464
aint	-11465
ript	-11466
▁Ent	-11467
▁Mus	-11468
▁是一个	-11469
不可能的	-11470
俄亥俄州	-11471
公共交通	-11472
其他地方	-11473
学生学习	-11474
思想实验	-11475
意思就是	-11476
排名第一	-11477
故事中的	-11478
最终幻想	-11479
绝大多数	-11480
航空母舰	-11481
言论自由	-11482
这一现象	-11483
面积约为	-11484
。1920	-11485
。1983	-11486
。1994	-11487
是一个位于	-11488
▁world	-11489
中华民国政府	-11490
该物种的模式产地在	-11491
%、	-11492
)”	-11493
AD	-11494
BM	-11495
En	-11496
IR	-11497
SH	-11498
TD	-11499
du	-11500
”;	-11501
──	-11502
▁r	-11503
▁听	-11504
》)	-11505
一组	-11506
不利	-11507
不说	-11508
专线	-11509
两端	-11510
中队	-11511
为该	-11512
之久	-11513
乐坛	-11514
了吗	-11515
二极	-11516
交响	-11517
代言	-11518
优惠	-11519
促销	-11520
信心	-11521
假如	-11522
偏好	-11523
偏旁	-11524
停留	-11525
元朝	-11526
元首	-11527
光禄	-11528
全市	-11529
全能	-11530
公使	-11531
公的	-11532
切割	-11533
切断	-11534
利物	-11535
华裔	-11536
即兴	-11537
县和	-11538
又译	-11539
各类	-11540
否决	-11541
周杰	-11542
命题	-11543
和他	-11544
四名	-11545
在那	-11546
埃德	-11547
基亚	-11548
塞特	-11549
外部	-11550
大略	-11551
失联	-11552
奇侠	-11553
奖金	-11554
妖怪	-11555
孝顺	-11556
守备	-11557
家康	-11558
封信	-11559
就用	-11560
居易	-11561
崩塌	-11562
川普	-11563
差的	-11564
师生	-11565
带著	-11566
庄园	-11567
开来	-11568
式为	-11569
弟的	-11570
强奸	-11571
强行	-11572
德勒	-11573
恋童	-11574
悼念	-11575
战乱	-11576
战警	-11577
打入	-11578
招募	-11579
挖掘	-11580
振动	-11581
撤离	-11582
文革	-11583
星空	-11584
极限	-11585
歹徒	-11586
死罪	-11587
没了	-11588
波音	-11589
湿地	-11590
父子	-11591
片中	-11592
登录	-11593
的分	-11594
直呼	-11595
知行	-11596
石器	-11597
破了	-11598
童话	-11599
红旗	-11600
纳米	-11601
罗夫	-11602
聚合	-11603
英超	-11604
蒸气	-11605
血管	-11606
西路	-11607
要塞	-11608
计时	-11609
订购	-11610
论述	-11611
贵的	-11612
身在	-11613
辜的	-11614
运载	-11615
运送	-11616
进度	-11617
适用	-11618
选票	-11619
道别	-11620
邓小	-11621
镇守	-11622
阻碍	-11623
隔年	-11624
集会	-11625
顶替	-11626
首长	-11627
骚扰	-11628
龙科	-11629
220	-11630
BBC	-11631
UTC	-11632
att	-11633
aur	-11634
oss	-11635
ram	-11636
}-、	-11637
▁-{	-11638
▁学校	-11639
▁每次	-11640
▁民国	-11641
▁这种	-11642
两个词	-11643
为热带	-11644
为美国	-11645
于香港	-11646
人口的	-11647
保留了	-11648
全垒打	-11649
再加上	-11650
却没有	-11651
厉害的	-11652
另一位	-11653
周杰伦	-11654
因此他	-11655
在现代	-11656
学院的	-11657
定义为	-11658
工作者	-11659
帝国的	-11660
并开始	-11661
并成为	-11662
形式的	-11663
恢复了	-11664
政治局	-11665
是中文	-11666
是属于	-11667
有一只	-11668
水资源	-11669
流行的	-11670
混为一	-11671
爆发后	-11672
白居易	-11673
的炸弹	-11674
的观察	-11675
相对应	-11676
破坏了	-11677
老一辈	-11678
航站楼	-11679
表现得	-11680
被列为	-11681
被用作	-11682
转向架	-11683
连续的	-11684
马英九	-11685
ello	-11686
中的一种	-11687
伊丽莎白	-11688
北京大学	-11689
可以使用	-11690
可以看到	-11691
大马士革	-11692
平方英里	-11693
春秋战国	-11694
本来就是	-11695
讲述的是	-11696
这种说法	-11697
这部电影	-11698
通常需要	-11699
bilib	-11700
odice	-11701
。1955	-11702
。1993	-11703
。1997	-11704
bilibili	-11705
HD	-11706
In	-11707
Zn	-11708
fl	-11709
▁y	-11710
▁电	-11711
、6	-11712
一时	-11713
一架	-11714
一类	-11715
一艘	-11716
上一	-11717
不经	-11718
专案	-11719
主宰	-11720
之王	-11721
之用	-11722
也称	-11723
介入	-11724
以示	-11725
低地	-11726
体操	-11727
你就	-11728
信念	-11729
偏低	-11730
全台	-11731
六号	-11732
刑部	-11733
创下	-11734
前半	-11735
力气	-11736
勇士	-11737
区是	-11738
南越	-11739
卡住	-11740
却不	-11741
厅长	-11742
发声	-11743
变长	-11744
后由	-11745
听懂	-11746
和华	-11747
喝茶	-11748
坐牢	-11749
声誉	-11750
大巴	-11751
失控	-11752
女装	-11753
嫁给	-11754
它被	-11755
宏观	-11756
实业	-11757
室的	-11758
对阵	-11759
山顶	-11760
崛起	-11761
州长	-11762
工部	-11763
巨星	-11764
布斯	-11765
常数	-11766
度假	-11767
弹匣	-11768
归于	-11769
很长	-11770
德州	-11771
恰到	-11772
惊喜	-11773
战时	-11774
手上	-11775
手感	-11776
手持	-11777
打滚	-11778
执教	-11779
拉尔	-11780
摄政	-11781
故此	-11782
敌为	-11783
数年	-11784
斑马	-11785
时宜	-11786
明尼	-11787
昏迷	-11788
是两	-11789
普尔	-11790
曲目	-11791
更大	-11792
期盼	-11793
木偶	-11794
未经	-11795
杂交	-11796
核酸	-11797
梅尔	-11798
横跨	-11799
民意	-11800
氯化	-11801
水面	-11802
治理	-11803
波多	-11804
泽尔	-11805
洛特	-11806
消散	-11807
滑冰	-11808
热点	-11809
热闹	-11810
焚烧	-11811
特权	-11812
特长	-11813
现充	-11814
琳娜	-11815
电码	-11816
的东	-11817
的真	-11818
的说	-11819
短不	-11820
石化	-11821
破损	-11822
硅基	-11823
科长	-11824
秘诀	-11825
租借	-11826
索尔	-11827
约克	-11828
联通	-11829
航行	-11830
苏军	-11831
莲叶	-11832
著的	-11833
补给	-11834
装有	-11835
西贡	-11836
解救	-11837
诉讼	-11838
该区	-11839
起床	-11840
边疆	-11841
这只	-11842
远亲	-11843
远征	-11844
那州	-11845
释出	-11846
金像	-11847
铜锣	-11848
键盘	-11849
长约	-11850
雪中	-11851
顶部	-11852
预知	-11853
首批	-11854
马云	-11855
龙类	-11856
-13	-11857
ACG	-11858
ins	-11859
irl	-11860
oft	-11861
out	-11862
ull	-11863
▁()	-11864
▁He	-11865
▁Re	-11866
▁有些	-11867
▁游戏	-11868
」),	-11869
万人次	-11870
三角恋	-11871
不断地	-11872
中世纪	-11873
了一句	-11874
以下的	-11875
但还是	-11876
便成了	-11877
像一个	-11878
元素的	-11879
制造的	-11880
医生在	-11881
博览会	-11882
发光的	-11883
发生于	-11884
吉林省	-11885
名侦探	-11886
和现实	-11887
国家级	-11888
境内的	-11889
外星人	-11890
多项式	-11891
大使馆	-11892
大联盟	-11893
学生们	-11894
实现了	-11895
将所有	-11896
就不是	-11897
就有了	-11898
延伸至	-11899
怎么样	-11900
总教区	-11901
患上了	-11902
我不是	-11903
我也是	-11904
或者是	-11905
房间的	-11906
手续费	-11907
技术的	-11908
排泄物	-11909
是著名	-11910
更大的	-11911
最高点	-11912
有一股	-11913
服务器	-11914
正能量	-11915
死亡和	-11916
气象厅	-11917
现代人	-11918
的作者	-11919
的著名	-11920
的速度	-11921
的都是	-11922
的高度	-11923
研发的	-11924
第二大	-11925
而实际	-11926
而得名	-11927
获得的	-11928
课堂上	-11929
谐音为	-11930
贵州省	-11931
这通常	-11932
违法的	-11933
都是在	-11934
(;),	-11935
1932	-11936
3,15	-11937
roid	-11938
roup	-11939
ster	-11940
▁Ser	-11941
他的名字	-11942
假日酒店	-11943
判处死刑	-11944
可以说是	-11945
可能存在	-11946
基础设施	-11947
并不是说	-11948
形成强烈	-11949
思维方式	-11950
恰到好处	-11951
意大利面	-11952
战争期间	-11953
所使用的	-11954
教育水平	-11955
无法理解	-11956
犯罪行为	-11957
的原因是	-11958
科学研究	-11959
竞争对手	-11960
第一定律	-11961
这是因为	-11962
Linux	-11963
ottom	-11964
。1981	-11965
。1987	-11966
火力发电厂	-11967
阿尔巴尼亚	-11968
illiam	-11969
位于该国东部	-11970
是南极洲的山峰	-11971
鱼科的其中一种	-11972
,”	-11973
El	-11974
IF	-11975
LO	-11976
Re	-11977
__	-11978
ks	-11979
ys	-11980
▁六	-11981
▁华	-11982
▁塔	-11983
▁狼	-11984
▁造	-11985
万卷	-11986
三百	-11987
不堪	-11988
不安	-11989
不当	-11990
不给	-11991
不错	-11992
不高	-11993
世凯	-11994
个数	-11995
中评	-11996
临头	-11997
为之	-11998
为古	-11999
之多	-12000
从中	-12001
付钱	-12002
代价	-12003
价钱	-12004
伊万	-12005
伐克	-12006
俏皮	-12007
倒影	-12008
倒流	-12009
偶然	-12010
充电	-12011
先前	-12012
入学	-12013
八个	-12014
关关	-12015
军用	-12016
击落	-12017
分隔	-12018
则于	-12019
匿名	-12020
千叶	-12021
南投	-12022
去脉	-12023
发情	-12024
各级	-12025
吉隆	-12026
同为	-12027
同伴	-12028
名列	-12029
告白	-12030
和猫	-12031
哈萨	-12032
商标	-12033
嘲笑	-12034
四处	-12035
回光	-12036
回去	-12037
围攻	-12038
国子	-12039
在哪	-12040
地雷	-12041
多条	-12042
失明	-12043
奉行	-12044
完后	-12045
官兵	-12046
宴会	-12047
富裕	-12048
小兰	-12049
就已	-12050
居于	-12051
已满	-12052
并把	-12053
废止	-12054
形势	-12055
心态	-12056
惯例	-12057
投放	-12058
拉德	-12059
拟声	-12060
拼了	-12061
拿到	-12062
挤出	-12063
捧哏	-12064
摇头	-12065
收回	-12066
收益	-12067
攻克	-12068
教训	-12069
新郎	-12070
无实	-12071
星官	-12072
春宫	-12073
是小	-12074
有助	-12075
本剧	-12076
来龙	-12077
林中	-12078
树苗	-12079
民事	-12080
沉淀	-12081
没事	-12082
波动	-12083
消化	-12084
消除	-12085
清凉	-12086
清晨	-12087
渡过	-12088
炫耀	-12089
率先	-12090
王府	-12091
理性	-12092
的南	-12093
的抗	-12094
的法	-12095
的空	-12096
的门	-12097
监测	-12098
目录	-12099
直线	-12100
真假	-12101
着急	-12102
瞬间	-12103
知了	-12104
砖头	-12105
示弱	-12106
示范	-12107
科目	-12108
空腹	-12109
素材	-12110
紧迫	-12111
线索	-12112
绍兴	-12113
续集	-12114
老二	-12115
考卷	-12116
耶律	-12117
聚焦	-12118
肿瘤	-12119
苦头	-12120
苦瓜	-12121
草科	-12122
藏着	-12123
融入	-12124
血统	-12125
警务	-12126
评分	-12127
误用	-12128
谁是	-12129
边为	-12130
迁居	-12131
迄今	-12132
逃离	-12133
选中	-12134
通称	-12135
遇难	-12136
道教	-12137
鉴于	-12138
防晒	-12139
防线	-12140
阿克	-12141
降落	-12142
难逃	-12143
面不	-12144
马路	-12145
马面	-12146
高峰	-12147
黑化	-12148
-20	-12149
GTA	-12150
fer	-12151
igh	-12152
ius	-12153
new	-12154
ony	-12155
res	-12156
rop	-12157
▁但是	-12158
▁作为	-12159
▁按照	-12160
▁是指	-12161
▁玩家	-12162
《》,	-12163
一般会	-12164
一辈子	-12165
三人成	-12166
不会被	-12167
了起来	-12168
事实的	-12169
人与人	-12170
亿港元	-12171
会失去	-12172
作者在	-12173
你自己	-12174
利物浦	-12175
副驾驶	-12176
动物的	-12177
化敌为	-12178
可以让	-12179
和地球	-12180
和情感	-12181
在一次	-12182
在国际	-12183
坏天气	-12184
处处长	-12185
多了一	-12186
奇神父	-12187
奶奶的	-12188
娱乐圈	-12189
尼古拉	-12190
开发区	-12191
当事人	-12192
怒之下	-12193
恋童癖	-12194
成功地	-12195
所组成	-12196
探险队	-12197
撞击坑	-12198
支球队	-12199
放大镜	-12200
故意将	-12201
数学上	-12202
普鲁士	-12203
更容易	-12204
有一种	-12205
格拉斯	-12206
毛利兰	-12207
爱上了	-12208
状态下	-12209
用这种	-12210
男演员	-12211
的代称	-12212
的口头	-12213
的地点	-12214
的文化	-12215
的玫瑰	-12216
的首府	-12217
社会中	-12218
红萝卜	-12219
纽西兰	-12220
结婚后	-12221
结束了	-12222
肯德基	-12223
花生米	-12224
袁世凯	-12225
超新星	-12226
郭德纲	-12227
集中在	-12228
革命军	-12229
顺天府	-12230
龙井茶	-12231
1931	-12232
1961	-12233
▁New	-12234
一模一样	-12235
不合时宜	-12236
个人行为	-12237
中指的是	-12238
冷酷无情	-12239
化敌为友	-12240
十二生肖	-12241
博士毕业	-12242
原意是指	-12243
参加高考	-12244
双重标准	-12245
填报志愿	-12246
富兰克林	-12247
巴士路线	-12248
并不需要	-12249
普通人的	-12250
来龙去脉	-12251
橙色预警	-12252
民族主义	-12253
河道全长	-12254
焦点访谈	-12255
的不合理	-12256
知行合一	-12257
离开人世	-12258
英雄主义	-12259
语言中的	-12260
这两个字	-12261
这张专辑	-12262
逆转录酶	-12263
通过对比	-12264
阿里巴巴	-12265
,2002	-12266
,2014	-12267
,2015	-12268
overs	-12269
▁1993	-12270
▁1995	-12271
▁1996	-12272
。1979	-12273
卡斯蒂利亚	-12274
发生的事情	-12275
可能存在的	-12276
现实生活中	-12277
台风警报中心	-12278
联合台风警报中心	-12279
;‘	-12280
CS	-12281
DA	-12282
Tw	-12283
mo	-12284
▁j	-12285
▁等	-12286
一批	-12287
不然	-12288
丘陵	-12289
两块	-12290
之以	-12291
亦凡	-12292
亲近	-12293
仙人	-12294
侵犯	-12295
侵蚀	-12296
保健	-12297
修饰	-12298
倒闭	-12299
党派	-12300
党部	-12301
入狱	-12302
全境	-12303
全新	-12304
公立	-12305
关掉	-12306
再生	-12307
冷嘲	-12308
利奥	-12309
利尼	-12310
前线	-12311
劣质	-12312
动员	-12313
勒斯	-12314
北伐	-12315
卖淫	-12316
卡通	-12317
叫醒	-12318
可惜	-12319
可知	-12320
台上	-12321
台东	-12322
各奔	-12323
后勤	-12324
后语	-12325
哭着	-12326
多于	-12327
多家	-12328
大败	-12329
大难	-12330
委内	-12331
学业	-12332
学界	-12333
客人	-12334
射线	-12335
将被	-12336
小马	-12337
就算	-12338
屏蔽	-12339
巴布	-12340
干涉	-12341
得我	-12342
总计	-12343
恋人	-12344
恰当	-12345
懒惰	-12346
成一	-12347
我对	-12348
战俘	-12349
拆卸	-12350
拉萨	-12351
拜登	-12352
搭档	-12353
新兴	-12354
无穷	-12355
无语	-12356
明复	-12357
普林	-12358
曼联	-12359
末年	-12360
本为	-12361
枪响	-12362
样式	-12363
正恩	-12364
武松	-12365
段的	-12366
每秒	-12367
河蟹	-12368
流淌	-12369
港澳	-12370
溺水	-12371
满手	-12372
热讽	-12373
特地	-12374
特种	-12375
现金	-12376
甲组	-12377
白卷	-12378
百度	-12379
的功	-12380
的年	-12381
相传	-12382
省长	-12383
睡意	-12384
知觉	-12385
短跑	-12386
祈求	-12387
神功	-12388
福克	-12389
累计	-12390
编钟	-12391
老鹰	-12392
而其	-12393
而后	-12394
联手	-12395
脊椎	-12396
臀鳍	-12397
船员	-12398
艰苦	-12399
草地	-12400
蒙蔽	-12401
补考	-12402
视野	-12403
解构	-12404
误导	-12405
诱饵	-12406
贷款	-12407
资深	-12408
超出	-12409
转账	-12410
辩解	-12411
闹鬼	-12412
难过	-12413
青铜	-12414
马达	-12415
鲜血	-12416
鸟不	-12417
鹊桥	-12418
***	-12419
3.5	-12420
DIO	-12421
ail	-12422
ann	-12423
ave	-12424
▁13	-12425
▁or	-12426
▁过敏	-12427
▁阿尔	-12428
▁韩国	-12429
不下来	-12430
不确定	-12431
与中国	-12432
两个月	-12433
中含有	-12434
了双眼	-12435
于是在	-12436
五个字	-12437
从来没	-12438
伟大的	-12439
八十人	-12440
副总统	-12441
医学院	-12442
合并为	-12443
吉隆坡	-12444
含金量	-12445
喜欢上	-12446
喜欢吃	-12447
喝咖啡	-12448
因为其	-12449
威尔士	-12450
工作中	-12451
巧妙的	-12452
布鲁斯	-12453
年代的	-12454
并要求	-12455
广州市	-12456
引发对	-12457
当我们	-12458
彼得堡	-12459
总书记	-12460
我是你	-12461
戴维斯	-12462
房产证	-12463
指南针	-12464
放生了	-12465
数学家	-12466
文生义	-12467
新来的	-12468
族自治	-12469
昨天的	-12470
是指用	-12471
暗示他	-12472
最低分	-12473
最新的	-12474
最长的	-12475
最高分	-12476
本没有	-12477
来指代	-12478
核打击	-12479
比特币	-12480
治所在	-12481
活动中	-12482
淡水鱼	-12483
激烈的	-12484
火葬场	-12485
版本的	-12486
珍珠的	-12487
生活于	-12488
生鱼片	-12489
用英语	-12490
电动机	-12491
的严肃	-12492
的人士	-12493
的文章	-12494
的权力	-12495
的极端	-12496
的用户	-12497
的资料	-12498
盒子里	-12499
看不懂	-12500
真的吗	-12501
破万卷	-12502
纽约市	-12503
绝育了	-12504
罗斯福	-12505
美好的	-12506
而无法	-12507
而没有	-12508
苏氨酸	-12509
被斩首	-12510
被查出	-12511
被选为	-12512
被隔离	-12513
见钱眼	-12514
视力表	-12515
计划的	-12516
讽刺或	-12517
说一句	-12518
读博士	-12519
赫尔辛	-12520
身上长	-12521
这一套	-12522
这么多	-12523
邓小平	-12524
都不会	-12525
重庆人	-12526
锁住了	-12527
闻起来	-12528
防晒霜	-12529
雪中送	-12530
鱼亚目	-12531
1934	-12532
3.14	-12533
4000	-12534
edia	-12535
ized	-12536
outh	-12537
rand	-12538
▁Col	-12539
▁Mar	-12540
▁孙悟空	-12541
▁这是一	-12542
不仅仅是	-12543
不切实际	-12544
不合逻辑	-12545
不甘示弱	-12546
也有今天	-12547
交通大学	-12548
人格分裂	-12549
全国政协	-12550
原本是指	-12551
参加考试	-12552
发光发热	-12553
各奔东西	-12554
后来成为	-12555
因为这个	-12556
国家安全	-12557
垃圾桶里	-12558
大难临头	-12559
天生一对	-12560
委内瑞拉	-12561
字面理解	-12562
对生活的	-12563
小意大利	-12564
属肉食性	-12565
带小行星	-12566
形容自己	-12567
感觉自己	-12568
我的母校	-12569
或者是在	-12570
摩斯电码	-12571
无意义的	-12572
日语专业	-12573
是一种对	-12574
是动画片	-12575
望文生义	-12576
毫无关联	-12577
用来比喻	-12578
用来讽刺	-12579
的反义词	-12580
的发音与	-12581
的口头禅	-12582
的讽刺和	-12583
相互作用	-12584
福尔马林	-12585
经典台词	-12586
自我认知	-12587
自我调侃	-12588
自身能力	-12589
表示的是	-12590
视频网站	-12591
越王勾践	-12592
距离单位	-12593
还有一个	-12594
这样一个	-12595
这种矛盾	-12596
进行对比	-12597
香港政府	-12598
黑白无常	-12599
,2003	-12600
2,000	-12601
▁1945	-12602
▁这是一句	-12603
不是中国人	-12604
与现实中的	-12605
但实际上是	-12606
佛罗里达州	-12607
北魏孝文帝	-12608
实际意思是	-12609
广场舞大妈	-12610
强壮的肌肉	-12611
意想不到的	-12612
没有自己的	-12613
的一种方式	-12614
自己的妻子	-12615
进击的巨人	-12616
阿尔及利亚	-12617
codice	-12618
minton	-12619
▁School	-12620
(《	-12621
aj	-12622
cy	-12623
tr	-12624
xk	-12625
▁初	-12626
▁明	-12627
▁瓦	-12628
▁若	-12629
▁连	-12630
、1	-12631
一提	-12632
万张	-12633
三分	-12634
上岸	-12635
上来	-12636
与庶	-12637
东站	-12638
丨你	-12639
丨草	-12640
丨警	-12641
为界	-12642
乃至	-12643
义务	-12644
也与	-12645
也太	-12646
事迹	-12647
二等	-12648
二虎	-12649
亚斯	-12650
亦被	-12651
产房	-12652
亲子	-12653
他要	-12654
以至	-12655
位在	-12656
位居	-12657
体测	-12658
侦测	-12659
借箭	-12660
克鲁	-12661
全员	-12662
全都	-12663
八嘎	-12664
关节	-12665
再别	-12666
军中	-12667
冲不	-12668
冷忽	-12669
凶宅	-12670
出局	-12671
则天	-12672
创收	-12673
刮墓	-12674
剁碎	-12675
前作	-12676
剪短	-12677
动了	-12678
医嘱	-12679
十层	-12680
午睡	-12681
华雄	-12682
卖出	-12683
南洋	-12684
南至	-12685
卷死	-12686
厌倦	-12687
去练	-12688
反攻	-12689
发呆	-12690
可恶	-12691
司徒	-12692
吃草	-12693
吧主	-12694
启德	-12695
吼的	-12696
周瑜	-12697
哑巴	-12698
喊着	-12699
四强	-12700
回了	-12701
因在	-12702
国人	-12703
国足	-12704
声带	-12705
声控	-12706
多是	-12707
大名	-12708
大哥	-12709
大愚	-12710
大星	-12711
天临	-12712
天地	-12713
夫不	-12714
夸下	-12715
夺取	-12716
奉命	-12717
好耶	-12718
如丧	-12719
如粪	-12720
嫌犯	-12721
完钱	-12722
定于	-12723
寝忘	-12724
寻信	-12725
小于	-12726
小龄	-12727
尚有	-12728
就业	-12729
尼酱	-12730
屎句	-12731
干饭	-12732
年从	-12733
开行	-12734
张学	-12735
弱志	-12736
怪物	-12737
总额	-12738
恰恰	-12739
恶劣	-12740
情形	-12741
感应	-12742
戏院	-12743
截止	-12744
所得	-12745
托夫	-12746
抱怨	-12747
拜灯	-12748
拾稼	-12749
按钮	-12750
挠破	-12751
换取	-12752
排球	-12753
推论	-12754
插入	-12755
改色	-12756
故障	-12757
散打	-12758
数千	-12759
数次	-12760
新宿	-12761
方形	-12762
无事	-12763
无才	-12764
日出	-12765
普里	-12766
曝光	-12767
有样	-12768
未婚	-12769
条目	-12770
林鸟	-12771
标示	-12772
梦话	-12773
欺我	-12774
欺骗	-12775
死鬼	-12776
殡仪	-12777
比划	-12778
气啊	-12779
水扁	-12780
法则	-12781
波粒	-12782
活罪	-12783
海伦	-12784
海滩	-12785
消气	-12786
涩涩	-12787
淫欲	-12788
渤海	-12789
湖广	-12790
滴神	-12791
灵堂	-12792
炫迈	-12793
炳添	-12794
点菜	-12795
烂钱	-12796
爵位	-12797
牛逼	-12798
狗跑	-12799
独品	-12800
玉皇	-12801
王后	-12802
玩味	-12803
理应	-12804
田忌	-12805
电母	-12806
的五	-12807
的深	-12808
监听	-12809
看点	-12810
真币	-12811
破防	-12812
社恐	-12813
社群	-12814
祖盒	-12815
福冈	-12816
稀碎	-12817
索尼	-12818
繁荣	-12819
纳西	-12820
维基	-12821
罗门	-12822
翼翼	-12823
老妈	-12824
老家	-12825
能吃	-12826
腹泻	-12827
自答	-12828
自问	-12829
舞室	-12830
航海	-12831
若智	-12832
获奖	-12833
表中	-12834
装蒜	-12835
要被	-12836
要钱	-12837
讯号	-12838
说要	-12839
谁更	-12840
豆泥	-12841
贞子	-12842
走错	-12843
超话	-12844
跟头	-12845
转入	-12846
过往	-12847
返照	-12848
还会	-12849
迷惑	-12850
送分	-12851
逃到	-12852
逃脱	-12853
道个	-12854
重伤	-12855
鉴宝	-12856
长老	-12857
门外	-12858
限塑	-12859
雀食	-12860
雌母	-12861
静脉	-12862
饮用	-12863
马岱	-12864
骨精	-12865
高宗	-12866
黄埔	-12867
!”“	-12868
-23	-12869
1,0	-12870
NTR	-12871
ale	-12872
ino	-12873
oci	-12874
oon	-12875
oot	-12876
que	-12877
red	-12878
the	-12879
▁Ex	-12880
▁Ph	-12881
▁三年	-12882
▁上帝	-12883
▁上课	-12884
▁人的	-12885
▁出门	-12886
▁吴京	-12887
▁天才	-12888
▁妈妈	-12889
▁张飞	-12890
▁很多	-12891
▁我要	-12892
▁熬夜	-12893
▁自来	-12894
▁领养	-12895
▁鱼戏	-12896
一种是	-12897
三棱镜	-12898
不太冷	-12899
不想去	-12900
不改名	-12901
与日常	-12902
与美国	-12903
严格的	-12904
丨警丨	-12905
中的我	-12906
主要为	-12907
二十年	-12908
五步蛇	-12909
五百万	-12910
人上人	-12911
人下人	-12912
人死后	-12913
人民的	-12914
人说话	-12915
代表队	-12916
以来的	-12917
但他们	-12918
但此处	-12919
侯德榜	-12920
先来了	-12921
公司在	-12922
出版了	-12923
出蝴蝶	-12924
分别在	-12925
别人在	-12926
到的光	-12927
勒死的	-12928
反常规	-12929
反常识	-12930
发言者	-12931
变态辣	-12932
叙述者	-12933
可乐杀	-12934
号公路	-12935
含义是	-12936
听不懂	-12937
吴亦凡	-12938
和协商	-12939
和双关	-12940
和滑稽	-12941
和现代	-12942
和调侃	-12943
咬手指	-12944
回答了	-12945
圆柱民	-12946
在当地	-12947
在游戏	-12948
型机车	-12949
声控灯	-12950
夜晚的	-12951
女儿国	-12952
如粪土	-12953
它们被	-12954
安全的	-12955
完作业	-12956
寝忘食	-12957
寻死路	-12958
小东西	-12959
小星星	-12960
小龄童	-12961
少年王	-12962
居委会	-12963
已成舟	-12964
幽默而	-12965
广泛的	-12966
座标为	-12967
归零膏	-12968
录音室	-12969
往上流	-12970
征六号	-12971
心吊胆	-12972
忽冷忽	-12973
忽视了	-12974
性表达	-12975
情感和	-12976
我在等	-12977
我身上	-12978
战役中	-12979
所需要	-12980
手中线	-12981
打游戏	-12982
扔垃圾	-12983
把他的	-12984
把植物	-12985
抢东西	-12986
拾稼庄	-12987
改变的	-12988
改编了	-12989
教科文	-12990
方块人	-12991
日发现	-12992
时间内	-12993
春宫图	-12994
是反的	-12995
是咸的	-12996
是日语	-12997
是谐音	-12998
暗示在	-12999
最小的	-13000
最讨厌	-13001
有幽默	-13002
朋友们	-13003
本应该	-13004
机务段	-13005
来调侃	-13006
模有样	-13007
死人了	-13008
死定了	-13009
段子手	-13010
水还挺	-13011
油漆工	-13012
法令纹	-13013
活埋了	-13014
浪费了	-13015
浴霸打	-13016
海底捞	-13017
烂大街	-13018
烽火连	-13019
煎饼摊	-13020
王老师	-13021
理查德	-13022
的乐高	-13023
的人民	-13024
的夸张	-13025
的官方	-13026
的思考	-13027
的成语	-13028
的渴望	-13029
的经典	-13030
的角度	-13031
的贬低	-13032
的首都	-13033
相遇是	-13034
看热闹	-13035
短不短	-13036
祈屎句	-13037
穿衣服	-13038
类比到	-13039
给出了	-13040
美猴王	-13041
翟天临	-13042
老年斑	-13043
考不上	-13044
而此句	-13045
而这些	-13046
胖子和	-13047
胜新婚	-13048
花甲店	-13049
茶叶店	-13050
荒谬性	-13051
蒋中正	-13052
表示在	-13053
被和谐	-13054
讲礼貌	-13055
诙谐地	-13056
语重心	-13057
说到底	-13058
说法是	-13059
请不要	-13060
谐音将	-13061
费马大	-13062
赛事中	-13063
跌落神	-13064
身是胆	-13065
还没一	-13066
还需要	-13067
这些人	-13068
长不长	-13069
阉割版	-13070
陈水扁	-13071
零伤亡	-13072
零分的	-13073
鬼门关	-13074
黑发人	-13075
1937	-13076
JOJO	-13077
able	-13078
copy	-13079
ower	-13080
push	-13081
uper	-13082
▁二次元	-13083
▁利用了	-13084
▁向日葵	-13085
▁幽默地	-13086
▁表达了	-13087
▁马德堡	-13088
一个人是	-13089
一块海绵	-13090
一日为师	-13091
一条狗跑	-13092
一颗星星	-13093
三人成虎	-13094
三角函数	-13095
不曾起舞	-13096
不能同意	-13097
与庶民同	-13098
为了避免	-13099
二十世纪	-13100
亚洲流行	-13101
人的脑袋	-13102
他奶奶的	-13103
你的观点	-13104
便衣警察	-13105
再别康桥	-13106
别想不开	-13107
制毒团伙	-13108
制造荒诞	-13109
割腕自杀	-13110
半球实验	-13111
去练舞室	-13112
参与排名	-13113
双厨狂洗	-13114
发起谴责	-13115
可以看出	-13116
可能是对	-13117
台湾大学	-13118
吃掉考卷	-13119
吉普赛人	-13120
后面的人	-13121
和夸张的	-13122
品味人生	-13123
哥特萝莉	-13124
哦哦哦哦	-13125
喵喵喵喵	-13126
四天工作	-13127
回光返照	-13128
在这里指	-13129
地区代表	-13130
坚持活着	-13131
多多光照	-13132
多活一会	-13133
大战僵尸	-13134
天的到来	-13135
天的距离	-13136
夸下海口	-13137
好的意思	-13138
如人饮水	-13139
学术腐败	-13140
学校禁止	-13141
宝宝巴适	-13142
家洗砚池	-13143
寻信姿势	-13144
展现了对	-13145
展示了对	-13146
属的一种	-13147
已经死了	-13148
干什么鬼	-13149
干净卫生	-13150
废寝忘食	-13151
开灯检查	-13152
引发思考	-13153
弱智网友	-13154
形成双关	-13155
得了癌症	-13156
快乐寒假	-13157
思想品德	-13158
情侣之间	-13159
意思是我	-13160
我的边缘	-13161
我锁住了	-13162
戴上眼镜	-13163
所以有了	-13164
所有考生	-13165
手上的茧	-13166
手术失败	-13167
排列祖盒	-13168
搞笑效果	-13169
改种豌豆	-13170
文化自信	-13171
斩妖除魔	-13172
旋转木马	-13173
日本动漫	-13174
是人类的	-13175
是无辜的	-13176
显性纯种	-13177
晚上睡觉	-13178
暗示了对	-13179
暗示小明	-13180
暗示某种	-13181
朝鲜冷面	-13182
木大木大	-13183
木已成舟	-13184
本义是指	-13185
来这一套	-13186
林子大了	-13187
柴油机车	-13188
梦是反的	-13189
气功大师	-13190
水还挺多	-13191
永远滴神	-13192
汉化政策	-13193
汉化本子	-13194
没有买卖	-13195
法兰克福	-13196
满手鲜血	-13197
热门新闻	-13198
爸爸妈妈	-13199
牛头马面	-13200
理解不了	-13201
生物老师	-13202
生的哑巴	-13203
用加特林	-13204
田忌赛马	-13205
电话手表	-13206
的谐音梗	-13207
的趣味性	-13208
直呼内行	-13209
看破真相	-13210
硅基生物	-13211
稳固感情	-13212
第二个人	-13213
置换反应	-13214
老一辈人	-13215
而我在等	-13216
职业高中	-13217
肯认错了	-13218
脾气太差	-13219
自问自答	-13220
蚂蚁森林	-13221
装睡的人	-13222
认为性本	-13223
讽刺了对	-13224
评委的头	-13225
语言游戏	-13226
说我嘴硬	-13227
说话者的	-13228
跳过火圈	-13229
输入法打	-13230
过程中的	-13231
这一成语	-13232
这个人的	-13233
这个句子	-13234
这句话把	-13235
这句话是	-13236
这里使用	-13237
进入考场	-13238
通过重复	-13239
逻辑推理	-13240
道个别吧	-13241
道德高地	-13242
金钱交易	-13243
金钱蒙蔽	-13244
阅读空气	-13245
面不改色	-13246
饿性循环	-13247
验尸结果	-13248
高位截瘫	-13249
高空抛物	-13250
鸟不拉屎	-13251
黑奴制度	-13252
黑帮火拼	-13253
鼻子会变	-13254
▁本意是指	-13255
▁谁能想到	-13256
▁这句话中	-13257
▁这句话把	-13258
▁这里借助	-13259
▁鱼戏莲叶	-13260
。1978	-13261
。1989	-13262
不合常理的	-13263
五百八十人	-13264
俄罗斯方块	-13265
借用了中国	-13266
傻子什么都	-13267
冷静一个月	-13268
制造了幽默	-13269
制造幽默感	-13270
反映出一种	-13271
发一点客观	-13272
吸血鬼害怕	-13273
和幽默效果	-13274
喜欢上纯爱	-13275
因此这句话	-13276
国家足球队	-13277
多活了一天	-13278
夫妻本是同	-13279
委员会主任	-13280
它巧妙地将	-13281
干掉一千人	-13282
幽默地表示	-13283
形成了反差	-13284
恐怖分子的	-13285
懂什么意思	-13286
打小就聪明	-13287
拟人的手法	-13288
指的是中国	-13289
描绘了一个	-13290
播放恐怖片	-13291
放出彩虹屁	-13292
文化大熔炉	-13293
昨天的火车	-13294
是一个比喻	-13295
是一种植物	-13296
是一种比喻	-13297
是一种自嘲	-13298
是一种调侃	-13299
是成功之母	-13300
暗示小明在	-13301
暗示说话者	-13302
有两只眼睛	-13303
有两种解释	-13304
杀手不太冷	-13305
村群童欺我	-13306
楚门的世界	-13307
波粒二象性	-13308
烽火戏诸侯	-13309
烽火连三月	-13310
王老汉还是	-13311
玩具的声音	-13312
电子书没有	-13313
的人吃海鲜	-13314
的喜剧效果	-13315
的幽默在于	-13316
绝地求生的	-13317
自嘲的语气	-13318
荒诞的逻辑	-13319
表达了一个	-13320
表达了对于	-13321
讽刺了某些	-13322
讽刺或调侃	-13323
调侃的意味	-13324
调解和协商	-13325
费马大定理	-13326
走的人多了	-13327
踩碎了天空	-13328
这句话中的	-13329
这里借用了	-13330
这里运用了	-13331
陈述了一个	-13332
非线性叙事	-13333
颁奖典礼是	-13334
食人族妈妈	-13335
office	-13336
▁该句使用了	-13337
▁这是一种对	-13338
▁这里提到的	-13339
▁通过双关语	-13340
▁通过夸张和	-13341
▁通过夸张的	-13342
▁通过幽默的	-13343
不能同意更多	-13344
以幽默的方式	-13345
判断洛伦兹力	-13346
只会让你活着	-13347
大难临头各自	-13348
巧妙地结合了	-13349
带着手套作案	-13350
形成黑色幽默	-13351
形象地描绘了	-13352
我的边缘试探	-13353
扫黄大队队长	-13354
暴雨橙色预警	-13355
植物大战僵尸	-13356
没有一片雪花	-13357
胖子和小男孩	-13358
胜利者书写的	-13359
表达了对自己	-13360
诸葛亮的体重	-13361
轻松的幽默感	-13362
这里的意思是	-13363
逻辑上的悖论	-13364
闻起来有一股	-13365
▁County	-13366
一种幽默的方式	-13367
产生一种幽默感	-13368
从低年级的同学	-13369
制造出幽默效果	-13370
夫妻本是同林鸟	-13371
杀死那个石家庄	-13372
来制造幽默效果	-13373
男生女生向前冲	-13374
金钱蒙蔽了双眼	-13375
Internet	-13376
▁这句话表达了对	-13377
▁马德堡半球实验	-13378
冷酷无情面不改色	-13379
字面上可以理解为	-13380
幽默和讽刺的意味	-13381
幽默或讽刺的效果	-13382
是一种夸张的说法	-13383
有幽默诙谐的效果	-13384
村群童欺我老无力	-13385
爱好者喜欢上纯爱	-13386
远离我的边缘试探	-13387
3,153,600	-13388
badminton	-13389
oversized	-13390
▁这句话通过夸张和	-13391
▁这里的幽默在于对	-13392
▁这里的幽默在于将	-13393
从低年级的同学那里	-13394
傻子什么都理解不了	-13395
高中同学和初中同学	-13396
▁这句话以幽默的方式	-13397
形成了一种幽默的效果	-13398
故意在凶器上留下了指纹	-13399
是一种夸张和幽默的表达	-13400
闻起来有一股烧焦的鼻毛味	-13401
3,153,600,000	-13402
:《	-13403
DF	-13404
DP	-13405
GP	-13406
Ge	-13407
HT	-13408
IM	-13409
SB	-13410
mp	-13411
▁布	-13412
▁比	-13413
▁汉	-13414
▁爱	-13415
▁皮	-13416
▁让	-13417
。"	-13418
。1	-13419
一一	-13420
一岁	-13421
一线	-13422
万里	-13423
不一	-13424
不听	-13425
不寻	-13426
不通	-13427
中视	-13428
九州	-13429
也以	-13430
事项	-13431
亦会	-13432
亦称	-13433
人及	-13434
他会	-13435
传出	-13436
传球	-13437
使命	-13438
借鉴	-13439
免于	-13440
入住	-13441
共识	-13442
写下	-13443
出入	-13444
出资	-13445
分队	-13446
初衷	-13447
制裁	-13448
南宋	-13449
原址	-13450
县市	-13451
变的	-13452
召唤	-13453
台的	-13454
合金	-13455
同位	-13456
名录	-13457
和阿	-13458
在线	-13459
坏了	-13460
基层	-13461
大堂	-13462
大韩	-13463
天桥	-13464
头脑	-13465
奥利	-13466
姜子	-13467
完颜	-13468
定制	-13469
害羞	-13470
导体	-13471
少量	-13472
山谷	-13473
巴克	-13474
巴哈	-13475
巴登	-13476
年仅	-13477
弹劾	-13478
微观	-13479
我将	-13480
所长	-13481
扬州	-13482
批复	-13483
护士	-13484
拉特	-13485
拿来	-13486
指标	-13487
接口	-13488
搜集	-13489
改用	-13490
放入	-13491
敌对	-13492
文斯	-13493
文档	-13494
日产	-13495
有五	-13496
有意	-13497
有被	-13498
楼高	-13499
榴弹	-13500
欧阳	-13501
民法	-13502
气概	-13503
气流	-13504
波利	-13505
灭火	-13506
牢房	-13507
猪肉	-13508
理所	-13509
瓦拉	-13510
的下	-13511
的卡	-13512
的手	-13513
的近	-13514
的钱	-13515
眼部	-13516
科隆	-13517
移除	-13518
穿著	-13519
等到	-13520
精选	-13521
紧密	-13522
编入	-13523
职工	-13524
胞胎	-13525
至死	-13526
节约	-13527
若是	-13528
莱坞	-13529
行使	-13530
诡异	-13531
谨慎	-13532
赤裸	-13533
走出	-13534
足联	-13535
跑步	-13536
跳舞	-13537
车头	-13538
辛亥	-13539
边形	-13540
迁徙	-13541
这与	-13542
迪克	-13543
邪神	-13544
郊区	-13545
部曲	-13546
铃木	-13547
防护	-13548
阴性	-13549
降解	-13550
集成	-13551
震惊	-13552
青蛙	-13553
面部	-13554
预料	-13555
风的	-13556
驻地	-13557
黎明	-13558
ald	-13559
ven	-13560
▁II	-13561
▁四川	-13562
▁当时	-13563
▁截至	-13564
」()	-13565
下议院	-13566
不适合	-13567
为国家	-13568
为自己	-13569
主要由	-13570
之后又	-13571
二十四	-13572
以及在	-13573
做一个	-13574
光合作	-13575
副院长	-13576
化学系	-13577
卡罗莱	-13578
印度洋	-13579
可以从	-13580
史上最	-13581
合适的	-13582
和英国	-13583
国际赛	-13584
圣公会	-13585
媒体的	-13586
年上映	-13587
年亚洲	-13588
年欧洲	-13589
征服了	-13590
很喜欢	-13591
心脏病	-13592
性关系	-13593
日启用	-13594
显然是	-13595
杀害了	-13596
杰克逊	-13597
标志着	-13598
派出所	-13599
父亲是	-13600
由美国	-13601
由英国	-13602
的努力	-13603
的开发	-13604
的特色	-13605
的球员	-13606
的领导	-13607
第一批	-13608
第十三	-13609
考虑到	-13610
节目中	-13611
被广泛	-13612
评论家	-13613
这三个	-13614
进步党	-13615
高强度	-13616
avid	-13617
iano	-13618
▁For	-13619
》(),	-13620
不敌赛会	-13621
中国政府	-13622
也就是说	-13623
占地面积	-13624
提供服务	-13625
有不同的	-13626
由此可见	-13627
的可能性	-13628
的目的是	-13629
邮政编码	-13630
首府设于	-13631
▁King	-13632
同进士出身	-13633
级行政单位	-13634
内蒙古自治区	-13635
分布在中国大陆的	-13636
)》	-13637
,"	-13638
1%	-13639
2:	-13640
3。	-13641
CE	-13642
ED	-13643
EF	-13644
_4	-13645
cm	-13646
▁十	-13647
▁埃	-13648
▁帕	-13649
▁时	-13650
▁梅	-13651
一到	-13652
一向	-13653
一小	-13654
三层	-13655
三郎	-13656
不懈	-13657
与李	-13658
世的	-13659
个性	-13660
中层	-13661
之众	-13662
之家	-13663
乡道	-13664
事宜	-13665
二甲	-13666
交付	-13667
京城	-13668
人文	-13669
会合	-13670
伦理	-13671
侧面	-13672
俄语	-13673
候车	-13674
其次	-13675
冲进	-13676
准则	-13677
分店	-13678
前夕	-13679
办学	-13680
北韩	-13681
原作	-13682
可供	-13683
史诗	-13684
吃了	-13685
各省	-13686
周五	-13687
和其	-13688
国中	-13689
国营	-13690
土库	-13691
在今	-13692
威斯	-13693
安置	-13694
实习	-13695
审议	-13696
客串	-13697
对人	-13698
将近	-13699
平成	-13700
年幼	-13701
并称	-13702
广为	-13703
当晚	-13704
徐州	-13705
得奖	-13706
悲惨	-13707
懂得	-13708
我也	-13709
户外	-13710
所致	-13711
扁平	-13712
打进	-13713
把它	-13714
拘捕	-13715
按察	-13716
摩擦	-13717
改设	-13718
整数	-13719
春风	-13720
是福	-13721
更具	-13722
更在	-13723
最先	-13724
有三	-13725
材质	-13726
杠杆	-13727
标语	-13728
梦见	-13729
樟脑	-13730
歌舞	-13731
死在	-13732
氏症	-13733
民兵	-13734
河中	-13735
泛指	-13736
洋人	-13737
流派	-13738
满了	-13739
满贯	-13740
潮湿	-13741
爱莲	-13742
特烈	-13743
犹豫	-13744
独裁	-13745
甜蜜	-13746
电站	-13747
畅销	-13748
白天	-13749
的好	-13750
的热	-13751
的的	-13752
盒子	-13753
看待	-13754
矮星	-13755
秋季	-13756
科斯	-13757
移交	-13758
穿上	-13759
立委	-13760
籍贯	-13761
粉末	-13762
纵队	-13763
绘入	-13764
编纂	-13765
翡翠	-13766
考核	-13767
者为	-13768
而出	-13769
葬于	-13770
要么	-13771
订单	-13772
训导	-13773
讲师	-13774
诋毁	-13775
误会	-13776
赞成	-13777
赞赏	-13778
走廊	-13779
起飞	-13780
路军	-13781
转速	-13782
追击	-13783
选拔	-13784
道具	-13785
道歉	-13786
遗忘	-13787
郡王	-13788
酸性	-13789
里奇	-13790
重型	-13791
量产	-13792
门票	-13793
雪糕	-13794
面具	-13795
音译	-13796
顶级	-13797
驻守	-13798
骨骼	-13799
高手	-13800
106	-13801
145	-13802
2.0	-13803
202	-13804
ech	-13805
hel	-13806
orn	-13807
sem	-13808
}-,	-13809
▁25	-13810
▁80	-13811
▁Sc	-13812
▁原本	-13813
▁故事	-13814
一连串	-13815
上获得	-13816
两者的	-13817
举行了	-13818
于美国	-13819
人数的	-13820
会计师	-13821
出租车	-13822
动车组	-13823
劳动者	-13824
北美洲	-13825
即便是	-13826
另一名	-13827
同样是	-13828
大约为	-13829
姜子牙	-13830
孩子们	-13831
就这样	-13832
彻斯特	-13833
德里克	-13834
拉丁语	-13835
收视率	-13836
改变了	-13837
最终于	-13838
期间的	-13839
核动力	-13840
案件的	-13841
款游戏	-13842
殡仪馆	-13843
清政府	-13844
甚至是	-13845
的一场	-13846
的大量	-13847
的想法	-13848
的演出	-13849
的理由	-13850
的规定	-13851
看不见	-13852
稳定性	-13853
继承了	-13854
翻译成	-13855
自然的	-13856
葡萄酒	-13857
被害人	-13858
这是一	-13859
通过了	-13860
降雨量	-13861
音乐家	-13862
食物的	-13863
irst	-13864
rist	-13865
▁Boy	-13866
▁Man	-13867
▁com	-13868
互联网上	-13869
以及其他	-13870
位于日本	-13871
变得更加	-13872
女同性恋	-13873
尤其是在	-13874
建筑面积	-13875
执行任务	-13876
最后一个	-13877
用来表示	-13878
科学技术	-13879
绘入地图	-13880
认为自己	-13881
这种情况	-13882
ition	-13883
▁1980	-13884
。1937	-13885
。1985	-13886
人民出版社	-13887
位于该国中	-13888
日本气象厅	-13889
是南极洲的	-13890
该市有人口	-13891
委员会副主任	-13892
足球甲级联赛	-13893
-9	-13894
IG	-13895
NG	-13896
Qu	-13897
VA	-13898
XX	-13899
▁黑	-13900
一堆	-13901
一面	-13902
上次	-13903
不成	-13904
专栏	-13905
专题	-13906
中举	-13907
为中	-13908
为义	-13909
书店	-13910
书香	-13911
产值	-13912
人之	-13913
仍未	-13914
传承	-13915
伦堡	-13916
位列	-13917
余生	-13918
倒地	-13919
假说	-13920
克劳	-13921
公墓	-13922
几百	-13923
凯勒	-13924
击退	-13925
刊物	-13926
利桑	-13927
剧烈	-13928
加泰	-13929
半夜	-13930
却又	-13931
卷入	-13932
原料	-13933
又以	-13934
双面	-13935
发炎	-13936
号和	-13937
号码	-13938
合肥	-13939
和热	-13940
四种	-13941
回声	-13942
团的	-13943
国联	-13944
在阿	-13945
垄断	-13946
堪称	-13947
墓地	-13948
多余	-13949
多国	-13950
多处	-13951
太极	-13952
宁县	-13953
宽度	-13954
尺度	-13955
尼奥	-13956
履行	-13957
希伯	-13958
帽子	-13959
并向	-13960
底部	-13961
废弃	-13962
开播	-13963
往下	-13964
很低	-13965
得太	-13966
态的	-13967
总算	-13968
情和	-13969
扩散	-13970
抓到	-13971
折扣	-13972
指引	-13973
援会	-13974
攻破	-13975
故居	-13976
斯达	-13977
新型	-13978
无用	-13979
日益	-13980
时有	-13981
星云	-13982
星光	-13983
是可	-13984
是西	-13985
更名	-13986
曼谷	-13987
月到	-13988
来袭	-13989
楚国	-13990
毒素	-13991
民用	-13992
水源	-13993
沉船	-13994
河川	-13995
法规	-13996
消极	-13997
灌木	-13998
点到	-13999
爱上	-14000
猪油	-14001
玛格	-14002
琼斯	-14003
瑞克	-14004
生前	-14005
用品	-14006
用地	-14007
田中	-14008
的变	-14009
的阿	-14010
皆有	-14011
看过	-14012
章节	-14013
系的	-14014
红海	-14015
组件	-14016
绰号	-14017
编曲	-14018
罗兰	-14019
美联	-14020
者将	-14021
肺部	-14022
脚踏	-14023
舒适	-14024
莱尔	-14025
蕴含	-14026
被推	-14027
裁定	-14028
视作	-14029
角的	-14030
议长	-14031
讲座	-14032
译本	-14033
诗词	-14034
费尔	-14035
走进	-14036
迁到	-14037
速率	-14038
遇见	-14039
道菜	-14040
郎中	-14041
酸盐	-14042
里昂	-14043
重构	-14044
重获	-14045
野心	-14046
钱币	-14047
阵容	-14048
雕刻	-14049
雨后	-14050
飞船	-14051
验证	-14052
鸣人	-14053
1.8	-14054
108	-14055
320	-14056
750	-14057
ABC	-14058
ake	-14059
app	-14060
emo	-14061
ery	-14062
ife	-14063
las	-14064
lic	-14065
ret	-14066
▁ch	-14067
▁化学	-14068
▁宁波	-14069
不满意	-14070
两人的	-14071
中也有	-14072
中心的	-14073
亚热带	-14074
人受伤	-14075
代表的	-14076
但并不	-14077
划分为	-14078
则认为	-14079
劳动力	-14080
又因为	-14081
双胞胎	-14082
发布了	-14083
发生后	-14084
和人类	-14085
商业化	-14086
大城市	-14087
大屠杀	-14088
威尔斯	-14089
寒冷的	-14090
小说家	-14091
就不能	-14092
差不多	-14093
年担任	-14094
并将其	-14095
开始在	-14096
很相似	-14097
得出的	-14098
得票率	-14099
微小的	-14100
必须要	-14101
总公司	-14102
患者的	-14103
意味著	-14104
我没有	-14105
把一个	-14106
投资者	-14107
控制了	-14108
新西兰	-14109
时间里	-14110
有名的	-14111
有能力	-14112
有部分	-14113
根据地	-14114
犯人的	-14115
玛丽亚	-14116
现在是	-14117
的两倍	-14118
的传播	-14119
的元素	-14120
的条件	-14121
的混合	-14122
的现实	-14123
的飞机	-14124
相较于	-14125
第二届	-14126
第二百	-14127
等方面	-14128
管理和	-14129
线路口	-14130
腓特烈	-14131
苏伊士	-14132
观众的	-14133
调查局	-14134
都需要	-14135
1928	-14136
▁现在的	-14137
一个非常	-14138
不是一个	-14139
世界各地	-14140
从而导致	-14141
党委书记	-14142
国共内战	-14143
大规模的	-14144
大部分的	-14145
文艺复兴	-14146
旅客铁道	-14147
民主主义	-14148
永远不会	-14149
火影忍者	-14150
试图通过	-14151
负面影响	-14152
赫尔辛基	-14153
音乐学院	-14154
香港电影	-14155
▁1985	-14156
▁1990	-14157
▁1994	-14158
。1941	-14159
。1958	-14160
。1984	-14161
。1986	-14162
犯罪嫌疑人	-14163
篮球运动员	-14164
县的一个城镇	-14165
下辖的一个乡镇	-14166
1"	-14167
1)	-14168
2》	-14169
;)	-14170
Co	-14171
MT	-14172
SE	-14173
vi	-14174
▁亚	-14175
▁会	-14176
▁刚	-14177
▁沙	-14178
▁网	-14179
一再	-14180
一郎	-14181
三号	-14182
世代	-14183
东山	-14184
东岸	-14185
东流	-14186
中是	-14187
中止	-14188
丹尼	-14189
为三	-14190
二二	-14191
亦于	-14192
付诸	-14193
代入	-14194
代号	-14195
但她	-14196
低压	-14197
作了	-14198
保育	-14199
假名	-14200
做过	-14201
元朗	-14202
克雷	-14203
冒充	-14204
几十	-14205
出赛	-14206
击出	-14207
刑罚	-14208
削弱	-14209
前去	-14210
加密	-14211
努斯	-14212
北区	-14213
北路	-14214
升降	-14215
卖国	-14216
博尔	-14217
又被	-14218
反之	-14219
口岸	-14220
可怕	-14221
可梦	-14222
台下	-14223
台大	-14224
号在	-14225
司铎	-14226
各界	-14227
吉士	-14228
后悔	-14229
和中	-14230
四国	-14231
园林	-14232
国小	-14233
在水	-14234
地板	-14235
城楼	-14236
基辅	-14237
塞拜	-14238
增多	-14239
夕阳	-14240
多夫	-14241
头筹	-14242
头颅	-14243
奖品	-14244
如愿	-14245
季军	-14246
安达	-14247
宴上	-14248
宾客	-14249
封面	-14250
就不	-14251
局限	-14252
居所	-14253
州和	-14254
巡演	-14255
工的	-14256
左臂	-14257
巴特	-14258
并论	-14259
弘治	-14260
彗星	-14261
得更	-14262
总值	-14263
悉尼	-14264
意甲	-14265
托出	-14266
投手	-14267
拓展	-14268
接连	-14269
推崇	-14270
摔跤	-14271
收敛	-14272
攻下	-14273
敌军	-14274
方丈	-14275
族人	-14276
日晚	-14277
昭宗	-14278
普罗	-14279
普顿	-14280
晶片	-14281
暴动	-14282
最小	-14283
最少	-14284
月间	-14285
有好	-14286
杀虫	-14287
村村	-14288
梁山	-14289
欢乐	-14290
欧美	-14291
民调	-14292
河谷	-14293
法学	-14294
涡轮	-14295
温差	-14296
牛斯	-14297
物流	-14298
犹大	-14299
白垩	-14300
的过	-14301
的金	-14302
票价	-14303
税务	-14304
简短	-14305
算出	-14306
管道	-14307
素质	-14308
者和	-14309
螺科	-14310
词典	-14311
试飞	-14312
诺斯	-14313
诺曼	-14314
财团	-14315
辱骂	-14316
达科	-14317
远程	-14318
连同	-14319
都与	-14320
都统	-14321
重叠	-14322
阻挡	-14323
饮料	-14324
首要	-14325
鲜卑	-14326
鸦片	-14327
1.2	-14328
15,	-14329
New	-14330
Rob	-14331
_11	-14332
ict	-14333
ite	-14334
oul	-14335
pen	-14336
rat	-14337
ult	-14338
||0	-14339
▁Cl	-14340
▁wh	-14341
▁一些	-14342
▁许多	-14343
▁这些	-14344
、11	-14345
《》。	-14346
一起来	-14347
不了解	-14348
不办理	-14349
但也有	-14350
但如果	-14351
保护区	-14352
内容的	-14353
分别于	-14354
十九年	-14355
可能的	-14356
同位素	-14357
和神经	-14358
和经济	-14359
圣保罗	-14360
在二战	-14361
在这段	-14362
客户端	-14363
将这个	-14364
小说中	-14365
工业区	-14366
年代末	-14367
年参加	-14368
弗雷德	-14369
总决赛	-14370
指挥部	-14371
日宣布	-14372
时间点	-14373
最终的	-14374
有没有	-14375
未成年	-14376
栖息于	-14377
注意到	-14378
生成的	-14379
电气化	-14380
的前身	-14381
的姓氏	-14382
的文字	-14383
的职责	-14384
直辖市	-14385
相比较	-14386
短暂的	-14387
第一代	-14388
线上的	-14389
聚合物	-14390
蝙蝠侠	-14391
设立了	-14392
设立的	-14393
谋杀案	-14394
足球场	-14395
这两种	-14396
部作品	-14397
青海省	-14398
1903	-14399
1908	-14400
itch	-14401
▁Ste	-14402
万立方米	-14403
专业知识	-14404
可以表示	-14405
女性角色	-14406
年代中期	-14407
年代开始	-14408
恐怖组织	-14409
教区主教	-14410
的是一个	-14411
相提并论	-14412
科技大学	-14413
这一概念	-14414
这一说法	-14415
部分地区	-14416
高等教育	-14417
▁1992	-14418
。1988	-14419
人大常委会	-14420
教科文组织	-14421
正常情况下	-14422
位于该国西北部	-14423
届全国政协委员	-14424
下辖的一个乡镇级行政单位	-14425
'(	-14426
Me	-14427
dd	-14428
my	-14429
pH	-14430
xx	-14431
▁内	-14432
▁塞	-14433
▁库	-14434
▁康	-14435
▁斯	-14436
▁石	-14437
一事	-14438
下半	-14439
不准	-14440
不小	-14441
与后	-14442
为邻	-14443
举起	-14444
之父	-14445
九巴	-14446
也将	-14447
习近	-14448
二期	-14449
人道	-14450
仅为	-14451
今晚	-14452
伍德	-14453
伤痕	-14454
你好	-14455
侏儒	-14456
偶遇	-14457
储备	-14458
光是	-14459
光速	-14460
党内	-14461
全省	-14462
关东	-14463
写实	-14464
军籍	-14465
几次	-14466
分行	-14467
分道	-14468
分部	-14469
则会	-14470
到过	-14471
努尔	-14472
半价	-14473
卒于	-14474
南宁	-14475
卫冕	-14476
即便	-14477
可谓	-14478
名片	-14479
吏部	-14480
吴国	-14481
哈德	-14482
商家	-14483
喝酒	-14484
土木	-14485
土著	-14486
圣殿	-14487
境地	-14488
多位	-14489
大蒜	-14490
太大	-14491
太尉	-14492
奇迹	-14493
奥托	-14494
如麻	-14495
守军	-14496
完毕	-14497
完结	-14498
宿主	-14499
寓言	-14500
对准	-14501
将此	-14502
小狗	-14503
尔克	-14504
就职	-14505
尾巴	-14506
岭南	-14507
巩固	-14508
开国	-14509
征战	-14510
很短	-14511
德利	-14512
恰好	-14513
托勒	-14514
扰乱	-14515
掏出	-14516
接手	-14517
搬到	-14518
撒冷	-14519
支那	-14520
支部	-14521
收割	-14522
改装	-14523
攻陷	-14524
散文	-14525
断裂	-14526
新罗	-14527
日和	-14528
时被	-14529
是与	-14530
是于	-14531
晚年	-14532
晤士	-14533
晴朗	-14534
曾因	-14535
最优	-14536
最具	-14537
服了	-14538
机身	-14539
枪械	-14540
查询	-14541
校方	-14542
检讨	-14543
民党	-14544
民生	-14545
民警	-14546
气味	-14547
汉军	-14548
汉斯	-14549
法轮	-14550
海关	-14551
海豚	-14552
清末	-14553
瀑布	-14554
火爆	-14555
独自	-14556
王爷	-14557
瓦解	-14558
生平	-14559
电解	-14560
的可	-14561
的和	-14562
的正	-14563
的行	-14564
眼球	-14565
短吻	-14566
秀吉	-14567
窗外	-14568
答辩	-14569
算是	-14570
纯粹	-14571
背后	-14572
能与	-14573
自豪	-14574
良心	-14575
艺名	-14576
花岗	-14577
荃湾	-14578
草拟	-14579
莫尔	-14580
虚幻	-14581
血肉	-14582
西比	-14583
西汉	-14584
西站	-14585
解体	-14586
诚信	-14587
诺尔	-14588
贞观	-14589
败给	-14590
货车	-14591
贩售	-14592
购入	-14593
赵云	-14594
转让	-14595
这会	-14596
进出	-14597
逃跑	-14598
造句	-14599
链接	-14600
阿基	-14601
集资	-14602
雌性	-14603
面体	-14604
香烟	-14605
高低	-14606
高分	-14607
高楼	-14608
10,	-14609
2.8	-14610
280	-14611
Man	-14612
ero	-14613
ics	-14614
lor	-14615
▁Is	-14616
▁la	-14617
▁国际	-14618
一个字	-14619
万英镑	-14620
与世界	-14621
也应该	-14622
交通部	-14623
什么是	-14624
但最后	-14625
依赖于	-14626
克拉克	-14627
全新的	-14628
出生时	-14629
分为两	-14630
到一个	-14631
前者是	-14632
合作的	-14633
回国后	-14634
回来了	-14635
女性的	-14636
好声音	-14637
安德森	-14638
就是指	-14639
岁以下	-14640
岛上的	-14641
年中国	-14642
幸运的	-14643
影评人	-14644
微积分	-14645
执导的	-14646
拒绝了	-14647
指出了	-14648
无线电	-14649
是一条	-14650
栖息地	-14651
检察院	-14652
正常人	-14653
海南省	-14654
深圳市	-14655
狮子王	-14656
环境下	-14657
的不良	-14658
的做法	-14659
的其他	-14660
的制作	-14661
的反对	-14662
的句子	-14663
的台湾	-14664
的威胁	-14665
的感情	-14666
的成就	-14667
的演员	-14668
的理念	-14669
的理解	-14670
的生命	-14671
相似的	-14672
看不到	-14673
确定的	-14674
第二轮	-14675
米尔顿	-14676
缩写为	-14677
肯塔基	-14678
被美国	-14679
计划在	-14680
计算器	-14681
该组织	-14682
起到了	-14683
转变为	-14684
通常为	-14685
里面有	-14686
陈代谢	-14687
马德里	-14688
1910	-14689
1927	-14690
1929	-14691
1939	-14692
Team	-14693
idea	-14694
ille	-14695
ings	-14696
rans	-14697
ream	-14698
▁天主教	-14699
中央军委	-14700
云南等地	-14701
值得一提	-14702
光合作用	-14703
其实就是	-14704
匈牙利语	-14705
受到影响	-14706
地方政府	-14707
大赛冠军	-14708
小行星于	-14709
州立大学	-14710
所说的话	-14711
更进一步	-14712
理工大学	-14713
理所当然	-14714
用来描述	-14715
男子气概	-14716
的基础上	-14717
的过程中	-14718
社会科学	-14719
纳粹德国	-14720
绕太阳运	-14721
藏传佛教	-14722
视觉效果	-14723
这意味着	-14724
长时间的	-14725
阿拉伯语	-14726
高等学校	-14727
ology	-14728
▁1987	-14729
▁1991	-14730
。1936	-14731
。1960	-14732
。1965	-14733
为主小行星	-14734
国民革命军	-14735
精神分裂症	-14736
证券交易所	-14737
该小行星于	-14738
在某些情况下	-14739
是一颗绕太阳运	-14740
栖息在底层水域	-14741
为中国的特有植物	-14742
为主小行星带小行星	-14743
ernational	-14744
是一颗绕太阳运转的小行星	-14745
?」	-14746
Bl	-14747
DC	-14748
EP	-14749
Hz	-14750
OR	-14751
ka	-14752
va	-14753
▁五	-14754
▁吉	-14755
▁波	-14756
▁洋	-14757
一笑	-14758
上演	-14759
东晋	-14760
两句	-14761
丧生	-14762
久了	-14763
买下	-14764
交互	-14765
交代	-14766
人肉	-14767
仓库	-14768
会馆	-14769
传到	-14770
伺服	-14771
但未	-14772
低音	-14773
佛寺	-14774
作废	-14775
你能	-14776
俚语	-14777
候群	-14778
做好	-14779
停业	-14780
先有	-14781
光线	-14782
入读	-14783
八大	-14784
公所	-14785
其二	-14786
其词	-14787
军校	-14788
军阀	-14789
冲之	-14790
凉爽	-14791
出国	-14792
列举	-14793
初级	-14794
北面	-14795
十秒	-14796
南朝	-14797
南端	-14798
历程	-14799
县道	-14800
参照	-14801
又二	-14802
又将	-14803
发问	-14804
口一	-14805
古今	-14806
司长	-14807
合共	-14808
吐槽	-14809
和一	-14810
售卖	-14811
因病	-14812
在人	-14813
在做	-14814
在说	-14815
城邦	-14816
增至	-14817
处死	-14818
大怒	-14819
太不	-14820
契丹	-14821
好玩	-14822
如在	-14823
始祖	-14824
姐姐	-14825
字形	-14826
官话	-14827
家畜	-14828
对照	-14829
小名	-14830
平地	-14831
并用	-14832
应试	-14833
庙宇	-14834
庞大	-14835
开出	-14836
张家	-14837
弹簧	-14838
往后	-14839
心仪	-14840
总管	-14841
恶搞	-14842
意的	-14843
成仙	-14844
成份	-14845
或在	-14846
战区	-14847
扣押	-14848
找出	-14849
护理	-14850
拆成	-14851
拉图	-14852
拳击	-14853
挽救	-14854
排序	-14855
推导	-14856
效能	-14857
文凭	-14858
断头	-14859
新任	-14860
方是	-14861
方针	-14862
旅馆	-14863
景区	-14864
智障	-14865
有功	-14866
朝向	-14867
林业	-14868
林肯	-14869
枪击	-14870
栖性	-14871
格罗	-14872
桌面	-14873
模板	-14874
步骤	-14875
每当	-14876
沟村	-14877
泰因	-14878
洗碗	-14879
洛斯	-14880
活塞	-14881
派系	-14882
深远	-14883
渔业	-14884
澎湖	-14885
灌溉	-14886
物件	-14887
特务	-14888
特有	-14889
特雷	-14890
特鲁	-14891
玻利	-14892
球衣	-14893
生母	-14894
由其	-14895
疑虑	-14896
痛斥	-14897
的七	-14898
的同	-14899
的石	-14900
的陈	-14901
皇冠	-14902
直属	-14903
短片	-14904
确诊	-14905
礼堂	-14906
离世	-14907
离散	-14908
纪元	-14909
纳州	-14910
纸张	-14911
终生	-14912
美食	-14913
翻唱	-14914
翻新	-14915
考量	-14916
而受	-14917
耶路	-14918
腹足	-14919
落实	-14920
要给	-14921
解雇	-14922
触地	-14923
账号	-14924
贯通	-14925
车的	-14926
转行	-14927
轻视	-14928
轻重	-14929
辈子	-14930
过快	-14931
近邻	-14932
这套	-14933
这片	-14934
追踪	-14935
追随	-14936
通缉	-14937
逼近	-14938
里头	-14939
重播	-14940
防洪	-14941
除非	-14942
领奖	-14943
领衔	-14944
饮酒	-14945
首周	-14946
驻军	-14947
驾车	-14948
麦可	-14949
(11	-14950
)11	-14951
1.6	-14952
10.	-14953
2.4	-14954
260	-14955
380	-14956
Car	-14957
air	-14958
ava	-14959
ele	-14960
ham	-14961
”。“	-14962
▁其实	-14963
▁历史	-14964
▁就是	-14965
。14	-14966
万欧元	-14967
不兼容	-14968
世纪中	-14969
乌拉圭	-14970
习近平	-14971
人类与	-14972
但对于	-14973
你不要	-14974
假设了	-14975
创立于	-14976
创立的	-14977
十年后	-14978
受害人	-14979
古代的	-14980
古罗马	-14981
可能有	-14982
同盟会	-14983
和意义	-14984
在过去	-14985
地区和	-14986
地球仪	-14987
地铁站	-14988
塞拜疆	-14989
多媒体	-14990
夺走了	-14991
奠基人	-14992
奥巴马	-14993
好莱坞	-14994
安大略	-14995
完全的	-14996
对不起	-14997
将不再	-14998
小提琴	-14999
就死了	-15000
年前的	-15001
年当选	-15002
并通过	-15003
建造了	-15004
必须先	-15005
戏剧性	-15006
指挥使	-15007
斯克州	-15008
斯特拉	-15009
是两种	-15010
是非常	-15011
曾经在	-15012
替换为	-15013
月下旬	-15014
杀人罪	-15015
杀虫剂	-15016
核武器	-15017
桃园市	-15018
检察官	-15019
氨基酸	-15020
没有被	-15021
法国人	-15022
法学院	-15023
泰晤士	-15024
流域为	-15025
深刻的	-15026
症候群	-15027
的主力	-15028
的主角	-15029
的开始	-15030
的惩罚	-15031
的最大	-15032
的核心	-15033
的河流	-15034
的电视	-15035
的第三	-15036
的管理	-15037
的自然	-15038
的论文	-15039
的请求	-15040
的限制	-15041
目前的	-15042
研究会	-15043
神话中	-15044
第一任	-15045
红楼梦	-15046
细胞核	-15047
而来的	-15048
耶稣的	-15049
获得第	-15050
虽然在	-15051
被评为	-15052
认定为	-15053
记忆力	-15054
说出了	-15055
资本论	-15056
这可能	-15057
追溯到	-15058
追溯至	-15059
都不能	-15060
铜锣湾	-15061
闽南语	-15062
额外的	-15063
高质量	-15064
1200	-15065
1922	-15066
Fran	-15067
ject	-15068
▁You	-15069
▁大部分	-15070
世界遗产	-15071
什么时候	-15072
出了一种	-15073
印第安纳	-15074
可以帮助	-15075
圣彼得堡	-15076
天的时间	-15077
并不存在	-15078
当中包括	-15079
影视作品	-15080
总面积为	-15081
放在一起	-15082
无期徒刑	-15083
是匈牙利	-15084
没有完成	-15085
混为一谈	-15086
生物学家	-15087
的人都是	-15088
繁殖季节	-15089
而是因为	-15090
耶路撒冷	-15091
辛亥革命	-15092
通常不会	-15093
通常来说	-15094
ebook	-15095
。1947	-15096
。1948	-15097
。1982	-15098
中央电视台	-15099
时间逢星期	-15100
自己的行为	-15101
这种情况下	-15102
的一个铁路车站	-15103
联合国教科文组织	-15104
!!	-15105
EX	-15106
HO	-15107
cp	-15108
oz	-15109
pb	-15110
←→	-15111
▁卢	-15112
▁成	-15113
▁烟	-15114
▁胡	-15115
▁至	-15116
▁说	-15117
▁里	-15118
、7	-15119
〉,	-15120
》:	-15121
一大	-15122
一山	-15123
七岁	-15124
上层	-15125
专员	-15126
两重	-15127
中专	-15128
中方	-15129
丰臣	-15130
举止	-15131
之路	-15132
也于	-15133
也和	-15134
亚马	-15135
亡灵	-15136
交会	-15137
亮了	-15138
人会	-15139
人家	-15140
人种	-15141
他有	-15142
伤心	-15143
佩尔	-15144
倡议	-15145
偏西	-15146
党校	-15147
入场	-15148
关了	-15149
其人	-15150
决斗	-15151
分歧	-15152
刑场	-15153
刻在	-15154
前提	-15155
升官	-15156
华的	-15157
华语	-15158
卑斯	-15159
却有	-15160
历代	-15161
又与	-15162
双层	-15163
双腿	-15164
发誓	-15165
发财	-15166
发送	-15167
可免	-15168
名句	-15169
名将	-15170
后文	-15171
周密	-15172
味的	-15173
国君	-15174
在东	-15175
在玩	-15176
坠落	-15177
堡垒	-15178
堡王	-15179
塔利	-15180
处女	-15181
多指	-15182
大将	-15183
天国	-15184
奉为	-15185
奉献	-15186
媒介	-15187
安定	-15188
宫内	-15189
对战	-15190
对调	-15191
尔赛	-15192
尼基	-15193
尼日	-15194
尼采	-15195
左手	-15196
巧合	-15197
巴嫩	-15198
布衣	-15199
师徒	-15200
常侍	-15201
庄子	-15202
庙里	-15203
开封	-15204
开的	-15205
归国	-15206
当众	-15207
得病	-15208
心碎	-15209
思路	-15210
恩斯	-15211
惊人	-15212
意象	-15213
手下	-15214
扬镳	-15215
抄写	-15216
招待	-15217
拥护	-15218
振兴	-15219
接驳	-15220
操控	-15221
救出	-15222
教义	-15223
文雅	-15224
时所	-15225
是会	-15226
是正	-15227
是苦	-15228
是高	-15229
景阳	-15230
最快	-15231
权的	-15232
杜鹃	-15233
某某	-15234
榜上	-15235
模组	-15236
正教	-15237
永安	-15238
池中	-15239
沙皇	-15240
治愈	-15241
泥土	-15242
流合	-15243
深思	-15244
溪流	-15245
溶剂	-15246
滤波	-15247
烈士	-15248
燕京	-15249
狭义	-15250
生计	-15251
生路	-15252
畏惧	-15253
的士	-15254
矿物	-15255
破除	-15256
硬棘	-15257
神奇	-15258
祸根	-15259
科林	-15260
稀少	-15261
稍微	-15262
米拉	-15263
类别	-15264
精子	-15265
结成	-15266
统帅	-15267
者是	-15268
而水	-15269
耳曼	-15270
脚上	-15271
舰艇	-15272
芯片	-15273
荧幕	-15274
蔡伦	-15275
藤原	-15276
衡量	-15277
表决	-15278
衰老	-15279
被砍	-15280
西蒙	-15281
要将	-15282
詹姆	-15283
订婚	-15284
诗经	-15285
贝格	-15286
财物	-15287
贿赂	-15288
车厂	-15289
这对	-15290
迭代	-15291
送礼	-15292
通电	-15293
遍了	-15294
避难	-15295
那我	-15296
都由	-15297
配乐	-15298
钟表	-15299
镇江	-15300
问我	-15301
防滑	-15302
雾和	-15303
革新	-15304
马利	-15305
骚乱	-15306
骷髅	-15307
高了	-15308
鬃毛	-15309
)10	-15310
,16	-15311
25%	-15312
996	-15313
SCP	-15314
ana	-15315
bug	-15316
ior	-15317
ome	-15318
row	-15319
unt	-15320
”()	-15321
▁),	-15322
▁Co	-15323
▁医院	-15324
▁自从	-15325
。——	-15326
》)。	-15327
一般的	-15328
三十年	-15329
不再是	-15330
不足以	-15331
主人的	-15332
了一半	-15333
了一只	-15334
了自己	-15335
二极管	-15336
以纪念	-15337
优秀的	-15338
办公厅	-15339
去世了	-15340
去看了	-15341
反复的	-15342
发现于	-15343
只剩下	-15344
可能性	-15345
同归于	-15346
后者的	-15347
和日本	-15348
因为我	-15349
在极端	-15350
基本法	-15351
外国人	-15352
实际是	-15353
家族的	-15354
小时前	-15355
工作或	-15356
已成为	-15357
年以后	-15358
年去世	-15359
开了个	-15360
强化了	-15361
性暗示	-15362
才有了	-15363
拥有一	-15364
推理的	-15365
政府军	-15366
教科书	-15367
旅游业	-15368
普法尔	-15369
月中旬	-15370
有机会	-15371
植物种	-15372
次会议	-15373
残忍的	-15374
氧化物	-15375
渗透压	-15376
点在于	-15377
特斯拉	-15378
王国的	-15379
用武力	-15380
的人头	-15381
的天才	-15382
的弟弟	-15383
的心愿	-15384
的执行	-15385
的攻击	-15386
的球队	-15387
的网络	-15388
的记载	-15389
的诗句	-15390
研究者	-15391
纪念馆	-15392
群岛的	-15393
而是对	-15394
联盟的	-15395
背地里	-15396
自己想	-15397
表示为	-15398
衬托出	-15399
记者会	-15400
足够的	-15401
达芬奇	-15402
阶段的	-15403
集团军	-15404
音乐的	-15405
首次在	-15406
黎巴嫩	-15407
1001	-15408
1906	-15409
1912	-15410
1921	-15411
1925	-15412
ouse	-15413
▁100	-15414
▁Bar	-15415
▁改编自	-15416
不好意思	-15417
中层水域	-15418
他的父亲	-15419
任何事情	-15420
分道扬镳	-15421
剑桥大学	-15422
协商会议	-15423
受欢迎的	-15424
可以得到	-15425
可能已经	-15426
同归于尽	-15427
国会议员	-15428
定时炸弹	-15429
属于一种	-15430
已经开始	-15431
年纪轻轻	-15432
我们可以	-15433
所以可以	-15434
技术手段	-15435
投入服务	-15436
文化差异	-15437
日本政府	-15438
明治三十	-15439
普法尔茨	-15440
有线电视	-15441
格鲁吉亚	-15442
比利牛斯	-15443
活了下来	-15444
理工学院	-15445
生育能力	-15446
的一个村	-15447
的第一个	-15448
短期大学	-15449
网络上的	-15450
美国总统	-15451
英国伦敦	-15452
调用函数	-15453
超级联赛	-15454
迟迟没有	-15455
,2000	-15456
,2004	-15457
一年的时间	-15458
中央委员会	-15459
得出的结论	-15460
排名第一的	-15461
素食主义者	-15462
音乐录影带	-15463
是俄罗斯联邦	-15464
Android	-15465
iversity	-15466
分布于中国大陆的	-15467
是西班牙卡斯蒂利亚	-15468
).	-15469
3:	-15470
;“	-15471
Je	-15472
TL	-15473
UR	-15474
za	-15475
▁x	-15476
▁写	-15477
▁史	-15478
▁山	-15479
▁德	-15480
▁正	-15481
▁没	-15482
▁还	-15483
▁郑	-15484
▁龙	-15485
》;	-15486
一代	-15487
一八	-15488
一指	-15489
七十	-15490
三刀	-15491
上学	-15492
不信	-15493
不溶	-15494
不肯	-15495
与对	-15496
丢掉	-15497
严苛	-15498
中位	-15499
为何	-15500
乘以	-15501
于勒	-15502
互为	-15503
京剧	-15504
仍为	-15505
仍是	-15506
他州	-15507
以内	-15508
企鹅	-15509
伏尔	-15510
优胜	-15511
住宿	-15512
体和	-15513
你啊	-15514
依次	-15515
便会	-15516
俗名	-15517
倒了	-15518
倒叙	-15519
倡导	-15520
催促	-15521
像个	-15522
元钱	-15523
公演	-15524
内斯	-15525
再说	-15526
凤山	-15527
凯尔	-15528
出价	-15529
分尸	-15530
刮目	-15531
制碱	-15532
前世	-15533
匈奴	-15534
医保	-15535
千吨	-15536
千瓦	-15537
午时	-15538
卑微	-15539
单行	-15540
南面	-15541
却因	-15542
压抑	-15543
厨房	-15544
参战	-15545
又降	-15546
反了	-15547
受命	-15548
可由	-15549
吃的	-15550
后就	-15551
后羿	-15552
后裔	-15553
吐蕃	-15554
含蓄	-15555
吴刚	-15556
吵架	-15557
吻了	-15558
和前	-15559
和南	-15560
和黑	-15561
回转	-15562
均匀	-15563
坎坷	-15564
城内	-15565
城南	-15566
塞纳	-15567
外形	-15568
大胆	-15569
头大	-15570
奉承	-15571
奢侈	-15572
好笑	-15573
如意	-15574
委婉	-15575
姚明	-15576
子龙	-15577
孢子	-15578
学派	-15579
宋朝	-15580
宗座	-15581
宝山	-15582
审理	-15583
宫崎	-15584
害死	-15585
将来	-15586
尺码	-15587
屋苑	-15588
左岸	-15589
巴掌	-15590
市级	-15591
干涩	-15592
年又	-15593
幸亏	-15594
底物	-15595
底盘	-15596
开往	-15597
弗莱	-15598
录得	-15599
影集	-15600
很爱	-15601
很能	-15602
得高	-15603
总兵	-15604
恶人	-15605
意境	-15606
成名	-15607
手提	-15608
扑克	-15609
打捞	-15610
扫射	-15611
抗争	-15612
拉面	-15613
指对	-15614
据称	-15615
掉进	-15616
摘自	-15617
支队	-15618
改姓	-15619
政委	-15620
教官	-15621
文书	-15622
斐济	-15623
新店	-15624
旅程	-15625
明亮	-15626
明清	-15627
昔日	-15628
是谁	-15629
更鸟	-15630
本就	-15631
李华	-15632
查看	-15633
树林	-15634
桓公	-15635
模块	-15636
正主	-15637
此书	-15638
武德	-15639
民营	-15640
气球	-15641
水坑	-15642
沃夫	-15643
河内	-15644
注射	-15645
派往	-15646
深受	-15647
溶解	-15648
演说	-15649
灵顿	-15650
炮台	-15651
点事	-15652
熟了	-15653
特和	-15654
特许	-15655
狱中	-15656
玉山	-15657
王建	-15658
珠海	-15659
甲基	-15660
电报	-15661
疯子	-15662
病患	-15663
的乡	-15664
的北	-15665
相撞	-15666
相看	-15667
矿业	-15668
福如	-15669
租赁	-15670
笑料	-15671
笑气	-15672
签名	-15673
签字	-15674
篇幅	-15675
系数	-15676
索要	-15677
缜密	-15678
缺席	-15679
网速	-15680
美梦	-15681
翅膀	-15682
联会	-15683
能让	-15684
脸上	-15685
艰难	-15686
艾尔	-15687
苏里	-15688
莎士	-15689
街上	-15690
街区	-15691
衣物	-15692
袁术	-15693
裤子	-15694
言之	-15695
讲解	-15696
词义	-15697
该句	-15698
该舰	-15699
请勿	-15700
调味	-15701
谦虚	-15702
谦逊	-15703
豪斯	-15704
费城	-15705
起始	-15706
车次	-15707
车身	-15708
边防	-15709
还可	-15710
那时	-15711
那种	-15712
配套	-15713
酿酒	-15714
里希	-15715
重水	-15716
野外	-15717
金星	-15718
钱财	-15719
阿斯	-15720
隐居	-15721
雅各	-15722
青色	-15723
静音	-15724
预告	-15725
饲养	-15726
高僧	-15727
鼓瑟	-15728
)”,	-15729
104	-15730
290	-15731
ION	-15732
ael	-15733
box	-15734
ene	-15735
ese	-15736
ien	-15737
low	-15738
own	-15739
ral	-15740
sin	-15741
▁到了	-15742
▁古代	-15743
▁成功	-15744
▁抗日	-15745
▁牛顿	-15746
▁考生	-15747
▁表面	-15748
一件事	-15749
上来说	-15750
不相关	-15751
中发现	-15752
中没有	-15753
主打歌	-15754
之后在	-15755
书法家	-15756
了一遍	-15757
事件中	-15758
事件后	-15759
亚当斯	-15760
产阶级	-15761
体育课	-15762
作者的	-15763
你不是	-15764
公布为	-15765
化处理	-15766
南部的	-15767
占领了	-15768
卫生纸	-15769
原来是	-15770
发展成	-15771
发明的	-15772
发表的	-15773
可降解	-15774
同流合	-15775
名字的	-15776
名称为	-15777
在全国	-15778
地表达	-15779
大人的	-15780
大满贯	-15781
大赛上	-15782
天空的	-15783
奇特的	-15784
如果将	-15785
孟德尔	-15786
完整版	-15787
就只能	-15788
就无法	-15789
就是对	-15790
工学院	-15791
布政使	-15792
年年底	-15793
并担任	-15794
并止于	-15795
庶吉士	-15796
建成后	-15797
快乐的	-15798
愤怒地	-15799
成绩单	-15800
所以在	-15801
打电话	-15802
控制器	-15803
收容所	-15804
政府在	-15805
文明的	-15806
新的一	-15807
日推出	-15808
日晚上	-15809
日耳曼	-15810
时间段	-15811
是一些	-15812
晋升为	-15813
晒太阳	-15814
最上面	-15815
有一年	-15816
本就是	-15817
本质是	-15818
橙色的	-15819
民主派	-15820
汉武帝	-15821
物质与	-15822
环保局	-15823
现代化	-15824
白垩纪	-15825
的一名	-15826
的交通	-15827
的军队	-15828
的反复	-15829
的口吻	-15830
的建筑	-15831
的意义	-15832
的担忧	-15833
的牌子	-15834
的界限	-15835
的第四	-15836
的规则	-15837
的那天	-15838
睡觉时	-15839
知更鸟	-15840
祖冲之	-15841
管理员	-15842
类动物	-15843
细胞的	-15844
终于在	-15845
结果却	-15846
网站的	-15847
群体的	-15848
而成为	-15849
职人员	-15850
舞台剧	-15851
节目的	-15852
警察局	-15853
许可证	-15854
该地区	-15855
谜语人	-15856
这封信	-15857
这辈子	-15858
都知道	-15859
重大的	-15860
阳神功	-15861
音乐剧	-15862
颗星星	-15863
1917	-15864
ield	-15865
reat	-15866
▁此处的	-15867
▁通过对	-15868
▁阿拉伯	-15869
不同的是	-15870
严格要求	-15871
中国国家	-15872
中央政府	-15873
人的行为	-15874
什么都没	-15875
他们都是	-15876
但是因为	-15877
克罗地亚	-15878
其他原因	-15879
加州大学	-15880
化学元素	-15881
可以增加	-15882
号染色体	-15883
同流合污	-15884
地理位置	-15885
天主教徒	-15886
嫌疑人的	-15887
就不需要	-15888
就是一个	-15889
工作中的	-15890
平均工资	-15891
成了一个	-15892
成员之一	-15893
我的生命	-15894
所产生的	-15895
日本帝国	-15896
是有限的	-15897
最后一次	-15898
木乃伊的	-15899
每个人都	-15900
没有什么	-15901
热爱生活	-15902
特别注意	-15903
玉皇大帝	-15904
生活方式	-15905
用来指代	-15906
的女孩子	-15907
相信自己	-15908
第二个是	-15909
给人一种	-15910
而该地的	-15911
自己就是	-15912
自然科学	-15913
艺术学院	-15914
英国皇家	-15915
莎士比亚	-15916
表达自己	-15917
被误解为	-15918
让人感到	-15919
问题上的	-15920
阿尔卑斯	-15921
需要时间	-15922
魔法少女	-15923
erson	-15924
ittle	-15925
▁1950	-15926
。1935	-15927
分布于非洲	-15928
县负责管辖	-15929
哈萨克斯坦	-15930
奥斯卡最佳	-15931
提供了一个	-15932
放射性物质	-15933
民主进步党	-15934
是下辖的一个乡镇级行政单位	-15935
.)	-15936
CT	-15937
MC	-15938
Pb	-15939
ii	-15940
“*	-15941
▁指	-15942
▁文	-15943
▁韦	-15944
一副	-15945
一头	-15946
一拳	-15947
一队	-15948
三六	-15949
三周	-15950
上都	-15951
不畅	-15952
不遵	-15953
不醒	-15954
业界	-15955
丢三	-15956
两度	-15957
两座	-15958
两盏	-15959
两碗	-15960
为四	-15961
为因	-15962
乎你	-15963
乐曲	-15964
九个	-15965
九只	-15966
也对	-15967
也许	-15968
争斗	-15969
二层	-15970
二班	-15971
二的	-15972
五千	-15973
亚种	-15974
人气	-15975
人设	-15976
他亦	-15977
会战	-15978
似箭	-15979
但你	-15980
你来	-15981
佩斯	-15982
侍中	-15983
侍寝	-15984
供电	-15985
保暖	-15986
保有	-15987
信托	-15988
候补	-15989
值为	-15990
倾斜	-15991
做主	-15992
偷订	-15993
偷走	-15994
克服	-15995
入坑	-15996
入水	-15997
八级	-15998
八达	-15999
公国	-16000
公孙	-16001
公理	-16002
公车	-16003
六人	-16004
内人	-16005
再飞	-16006
写到	-16007
冠冕	-16008
出品	-16009
函馆	-16010
切换	-16011
列日	-16012
前脚	-16013
加醋	-16014
华纳	-16015
卖菜	-16016
卡内	-16017
卧薪	-16018
危急	-16019
历时	-16020
去吧	-16021
去的	-16022
又是	-16023
又次	-16024
反派	-16025
发廊	-16026
发放	-16027
发文	-16028
吃喝	-16029
后经	-16030
后脚	-16031
吓人	-16032
吩咐	-16033
听政	-16034
吴冠	-16035
吹嘘	-16036
和反	-16037
和后	-16038
和第	-16039
哭了	-16040
噩梦	-16041
围棋	-16042
围着	-16043
国土	-16044
地层	-16045
场馆	-16046
坚固	-16047
垂帘	-16048
培育	-16049
多段	-16050
多部	-16051
大厅	-16052
太保	-16053
央视	-16054
失落	-16055
夸赞	-16056
女皇	-16057
字样	-16058
孤立	-16059
学金	-16060
孩童	-16061
安提	-16062
宝莉	-16063
实到	-16064
客量	-16065
家臣	-16066
密歇	-16067
富豪	-16068
射手	-16069
尝胆	-16070
左侧	-16071
左派	-16072
已打	-16073
市买	-16074
市委	-16075
帅哥	-16076
干杯	-16077
年所	-16078
庆长	-16079
开导	-16080
异性	-16081
弄破	-16082
引诱	-16083
强力	-16084
强风	-16085
影业	-16086
必需	-16087
忙于	-16088
性或	-16089
性爱	-16090
情愿	-16091
我才	-16092
截然	-16093
扇贝	-16094
打趣	-16095
投奔	-16096
投币	-16097
招收	-16098
挫败	-16099
掉落	-16100
摊主	-16101
摩洛	-16102
撒娇	-16103
撤回	-16104
攻读	-16105
敦颐	-16106
旁观	-16107
无一	-16108
日及	-16109
日渐	-16110
早于	-16111
早就	-16112
时才	-16113
明月	-16114
星体	-16115
是和	-16116
显现	-16117
普森	-16118
更强	-16119
替补	-16120
最短	-16121
月时	-16122
朝下	-16123
木材	-16124
李从	-16125
松软	-16126
梦到	-16127
森堡	-16128
次的	-16129
殴打	-16130
比早	-16131
水洗	-16132
汉中	-16133
江县	-16134
污水	-16135
沿著	-16136
法定	-16137
洗了	-16138
混沌	-16139
湾仔	-16140
滑倒	-16141
满族	-16142
演习	-16143
热内	-16144
特曼	-16145
状的	-16146
狩猎	-16147
率部	-16148
王朱	-16149
男同	-16150
番禺	-16151
白银	-16152
的右	-16153
的基	-16154
的波	-16155
监管	-16156
盖上	-16157
盘子	-16158
盛筵	-16159
破口	-16160
礼仪	-16161
私下	-16162
称量	-16163
窗口	-16164
立陶	-16165
站厅	-16166
站和	-16167
章程	-16168
笑脸	-16169
笔名	-16170
纸巾	-16171
终端	-16172
经国	-16173
结识	-16174
维吉	-16175
维度	-16176
缩减	-16177
罗杰	-16178
罗纳	-16179
考拉	-16180
耐烦	-16181
脸庞	-16182
臣本	-16183
自立	-16184
自转	-16185
至关	-16186
舰上	-16187
舰长	-16188
苦练	-16189
范进	-16190
菜肴	-16191
落败	-16192
虐待	-16193
虫子	-16194
血症	-16195
补偿	-16196
西下	-16197
西域	-16198
西面	-16199
要我	-16200
解析	-16201
记述	-16202
该书	-16203
该处	-16204
调快	-16205
贡士	-16206
趁机	-16207
足利	-16208
足总	-16209
转到	-16210
转得	-16211
较早	-16212
迎接	-16213
通勤	-16214
郡的	-16215
都将	-16216
采纳	-16217
采购	-16218
问句	-16219
除以	-16220
霍尔	-16221
霓虹	-16222
青团	-16223
音字	-16224
题中	-16225
首届	-16226
魔镜	-16227
黄昏	-16228
159	-16229
450	-16230
460	-16231
TVB	-16232
iOS	-16233
mix	-16234
ner	-16235
nig	-16236
pan	-16237
sci	-16238
”)。	-16239
▁as	-16240
▁一日	-16241
▁专家	-16242
▁借用	-16243
▁北京	-16244
▁司马	-16245
▁报告	-16246
▁最初	-16247
▁柯南	-16248
▁毕业	-16249
▁现时	-16250
▁知识	-16251
▁确实	-16252
▁遇到	-16253
▁随著	-16254
、10	-16255
一个种	-16256
一般是	-16257
下大雨	-16258
不出去	-16259
不愿意	-16260
与环境	-16261
两年后	-16262
中使用	-16263
为义父	-16264
也称为	-16265
了一样	-16266
互换了	-16267
亚利桑	-16268
从电视	-16269
以增加	-16270
会使用	-16271
会引发	-16272
低年级	-16273
公鸡和	-16274
其余的	-16275
再一次	-16276
出人头	-16277
出自于	-16278
列车的	-16279
制造业	-16280
剥夺了	-16281
副教授	-16282
北方的	-16283
十二分	-16284
南北朝	-16285
发源自	-16286
取代了	-16287
只好向	-16288
只能在	-16289
史蒂芬	-16290
司机在	-16291
同时将	-16292
和军事	-16293
哈里发	-16294
喝牛奶	-16295
因此用	-16296
在口语	-16297
在混双	-16298
埃里克	-16299
大总统	-16300
大都会	-16301
她的脸	-16302
完成的	-16303
密歇根	-16304
对某个	-16305
就像在	-16306
就变成	-16307
就需要	-16308
布里斯	-16309
希望能	-16310
希腊语	-16311
常常用	-16312
年在位	-16313
年轻的	-16314
建筑的	-16315
张学良	-16316
当下的	-16317
当警察	-16318
很普通	-16319
微生物	-16320
忘记了	-16321
恐惧症	-16322
情境中	-16323
想表达	-16324
成语的	-16325
我对于	-16326
或自我	-16327
或逃避	-16328
所以会	-16329
所取代	-16330
托勒密	-16331
扮演了	-16332
找老婆	-16333
抬头看	-16334
改名叫	-16335
无用的	-16336
无能的	-16337
时感到	-16338
是一项	-16339
是事实	-16340
是指代	-16341
是根据	-16342
是瑞士	-16343
是耶稣	-16344
有一次	-16345
有歧义	-16346
有礼貌	-16347
朋友圈	-16348
来决定	-16349
来获得	-16350
梦境中	-16351
棉花糖	-16352
棺材铺	-16353
母亲是	-16354
活着的	-16355
海军的	-16356
漂流记	-16357
爱国福	-16358
爱莲说	-16359
父亲对	-16360
猴子的	-16361
用谐音	-16362
电影名	-16363
的合作	-16364
的名句	-16365
的强烈	-16366
的悲伤	-16367
的意象	-16368
的数据	-16369
的文件	-16370
的普通	-16371
的水分	-16372
直接喷	-16373
相对的	-16374
相连接	-16375
秋天的	-16376
科会试	-16377
科医生	-16378
立陶宛	-16379
竟然是	-16380
第二甲	-16381
类比为	-16382
粉丝的	-16383
纸飞机	-16384
翻译为	-16385
而东北	-16386
耶和华	-16387
英国人	-16388
荀子的	-16389
营业中	-16390
融合了	-16391
被列入	-16392
规模的	-16393
过人的	-16394
迈克尔	-16395
都不如	-16396
都御史	-16397
配音员	-16398
酒宴上	-16399
问别人	-16400
题目的	-16401
风吹拂	-16402
1914	-16403
2500	-16404
ates	-16405
erry	-16406
http	-16407
▁Ass	-16408
▁日本人	-16409
▁普通人	-16410
▁科学家	-16411
▁这是在	-16412
一条生路	-16413
不合常理	-16414
个人信息	-16415
中的歌词	-16416
也可以被	-16417
也是中国	-16418
交通问题	-16419
从来没有	-16420
仔细观察	-16421
付诸东流	-16422
但是实际	-16423
位于台湾	-16424
借此讽刺	-16425
光阴似箭	-16426
共享单车	-16427
冷嘲热讽	-16428
别人的人	-16429
卧薪尝胆	-16430
只是一种	-16431
可以组成	-16432
同一个字	-16433
同年五月	-16434
同年同月	-16435
同时暗示	-16436
后面加上	-16437
哈佛大学	-16438
在生活中	-16439
在考试中	-16440
垂帘听政	-16441
大家一起	-16442
失去灵魂	-16443
客观事实	-16444
密西西比	-16445
对外开放	-16446
封建迷信	-16447
属的鱼类	-16448
已经失败	-16449
并无直接	-16450
广告中的	-16451
所以不会	-16452
所以此处	-16453
投入使用	-16454
指代的是	-16455
授课方式	-16456
整点报时	-16457
日语中的	-16458
是同性恋	-16459
是奥地利	-16460
暴力行为	-16461
杀死一只	-16462
杀死比尔	-16463
杨永信的	-16464
格陵兰岛	-16465
每天都在	-16466
生殖隔离	-16467
生理需求	-16468
电影院和	-16469
的前提是	-16470
的发音和	-16471
的对比和	-16472
的相似性	-16473
监察御史	-16474
破口大骂	-16475
第一个人	-16476
等待戈多	-16477
经纪公司	-16478
绝对不会	-16479
考试成绩	-16480
而不是把	-16481
而是通过	-16482
自我安慰	-16483
表达出来	-16484
被赋予了	-16485
西太平洋	-16486
这个动作	-16487
这部分是	-16488
通常代表	-16489
长生不死	-16490
高等法院	-16491
ement	-16492
▁1982	-16493
▁Park	-16494
▁中华民国	-16495
▁这段对话	-16496
。1940	-16497
下的一个属	-16498
不完全统计	-16499
主要是因为	-16500
之间的反差	-16501
人口密度为	-16502
传统文化中	-16503
你也有今天	-16504
如果一个人	-16505
字面意思是	-16506
并不是因为	-16507
底中层水域	-16508
是罗马尼亚	-16509
的化学元素	-16510
行政中心为	-16511
表面上看似	-16512
ertain	-16513
什么都不知道	-16514
同年同月同日	-16515
政治协商会议	-16516
羽毛球公开赛	-16517
cosplay	-16518
杀死一只知更鸟	-16519
▁Windows	-16520
ertainment	-16521
"、	-16522
(「	-16523
,(	-16524
.,	-16525
BL	-16526
SD	-16527
SP	-16528
Sw	-16529
hy	-16530
ky	-16531
▁何	-16532
▁余	-16533
▁到	-16534
▁加	-16535
▁花	-16536
▁莱	-16537
▁雷	-16538
一台	-16539
一圈	-16540
一字	-16541
上也	-16542
不喝	-16543
不等	-16544
与在	-16545
丑了	-16546
业主	-16547
丢人	-16548
两部	-16549
丨无	-16550
丨来	-16551
丨逼	-16552
中都	-16553
举例	-16554
义轻	-16555
乌合	-16556
乌尔	-16557
九台	-16558
九等	-16559
了的	-16560
事佬	-16561
事房	-16562
二刷	-16563
于股	-16564
云林	-16565
互补	-16566
亚拉	-16567
交涉	-16568
享福	-16569
仍能	-16570
他所	-16571
他把	-16572
份子	-16573
会以	-16574
会死	-16575
会用	-16576
会谈	-16577
传道	-16578
传闻	-16579
你要	-16580
你走	-16581
俄服	-16582
保智	-16583
保质	-16584
信用	-16585
倒翁	-16586
借以	-16587
债务	-16588
假鞋	-16589
偏瘦	-16590
做菜	-16591
健身	-16592
儿膝	-16593
先别	-16594
克洛	-16595
入粪	-16596
兮列	-16597
兵部	-16598
内阻	-16599
内鬼	-16600
再晚	-16601
减负	-16602
出众	-16603
凿壁	-16604
分享	-16605
分局	-16606
刚擒	-16607
到梗	-16608
制服	-16609
前任	-16610
副将	-16611
加口	-16612
加装	-16613
助手	-16614
勒痕	-16615
北克	-16616
北条	-16617
匡衡	-16618
千里	-16619
午觉	-16620
半死	-16621
半部	-16622
华侨	-16623
南区	-16624
南路	-16625
卡西	-16626
卡车	-16627
历经	-16628
压死	-16629
厚度	-16630
去死	-16631
受益	-16632
叠词	-16633
可得	-16634
可破	-16635
吃个	-16636
吃完	-16637
各式	-16638
同属	-16639
同等	-16640
同胞	-16641
后与	-16642
听众	-16643
吹弹	-16644
咋滴	-16645
和你	-16646
唇枪	-16647
唯有	-16648
唯独	-16649
啥呢	-16650
喂牛	-16651
嘈杂	-16652
四位	-16653
国公	-16654
圆的	-16655
圣地	-16656
在北	-16657
在无	-16658
在校	-16659
塔克	-16660
墙壁	-16661
增援	-16662
复苏	-16663
外借	-16664
多万	-16665
多洞	-16666
大中	-16667
大和	-16668
大粪	-16669
大雁	-16670
天书	-16671
天水	-16672
太晒	-16673
太深	-16674
夺回	-16675
奏曲	-16676
奖章	-16677
好怪	-16678
姓匹	-16679
娘炮	-16680
存活	-16681
孟德	-16682
孰美	-16683
守门	-16684
害鹅	-16685
宾夕	-16686
富含	-16687
对骂	-16688
将之	-16689
小矮	-16690
少活	-16691
就住	-16692
就计	-16693
就跑	-16694
尸斑	-16695
尸炉	-16696
屁眼	-16697
州人	-16698
巧用	-16699
差点	-16700
带的	-16701
常有	-16702
年老	-16703
应到	-16704
开拓	-16705
开支	-16706
开机	-16707
开阔	-16708
强劲	-16709
当庭	-16710
待币	-16711
很小	-16712
怀胎	-16713
性恶	-16714
悼词	-16715
情商	-16716
想死	-16717
憋死	-16718
戏称	-16719
我俩	-16720
我吧	-16721
我妈	-16722
户籍	-16723
手冲	-16724
打啦	-16725
执着	-16726
技艺	-16727
抓人	-16728
抓耳	-16729
投稿	-16730
投足	-16731
折叠	-16732
护具	-16733
抱金	-16734
抽成	-16735
拔了	-16736
拿枪	-16737
拿钱	-16738
指人	-16739
按了	-16740
挑选	-16741
挤挤	-16742
捡回	-16743
接到	-16744
搭乘	-16745
改动	-16746
改拍	-16747
放羊	-16748
散布	-16749
敲书	-16750
文人	-16751
斜音	-16752
斧新	-16753
无字	-16754
无缘	-16755
日内	-16756
日到	-16757
旱季	-16758
旺仔	-16759
是让	-16760
是铅	-16761
是长	-16762
昴日	-16763
晚工	-16764
普斯	-16765
暴风	-16766
更甜	-16767
未煮	-16768
本指	-16769
本环	-16770
来火	-16771
某一	-16772
某物	-16773
梦里	-16774
歇尔	-16775
死伤	-16776
死翟	-16777
残余	-16778
毒的	-16779
比西	-16780
民谣	-16781
氧管	-16782
水了	-16783
水流	-16784
水系	-16785
汁萌	-16786
汪汪	-16787
没关	-16788
没死	-16789
河西	-16790
治安	-16791
活腻	-16792
活路	-16793
添油	-16794
清治	-16795
渔民	-16796
渔港	-16797
潜伏	-16798
火源	-16799
火焰	-16800
灭亲	-16801
灭霸	-16802
炸裂	-16803
点名	-16804
熟没	-16805
狐狸	-16806
狼籍	-16807
瓦夫	-16808
由该	-16809
电动	-16810
界别	-16811
病症	-16812
的茧	-16813
皮匠	-16814
皮尔	-16815
省会	-16816
着看	-16817
瞎掰	-16818
石勒	-16819
研毕	-16820
破房	-16821
示爱	-16822
祈使	-16823
离昏	-16824
税收	-16825
立日	-16826
童趣	-16827
笔力	-16828
米尼	-16829
累死	-16830
纠纷	-16831
线在	-16832
结晶	-16833
老八	-16834
老死	-16835
联名	-16836
胡同	-16837
能储	-16838
脑筋	-16839
腓力	-16840
舌战	-16841
艹粉	-16842
花卷	-16843
花科	-16844
莉亚	-16845
落四	-16846
蒋劲	-16847
行销	-16848
补发	-16849
衰落	-16850
装病	-16851
西山	-16852
西欧	-16853
见证	-16854
见鬼	-16855
解牛	-16856
誓言	-16857
识途	-16858
译作	-16859
诠释	-16860
该属	-16861
诱惑	-16862
贝里	-16863
负义	-16864
赌博	-16865
赌马	-16866
赤兔	-16867
踩爆	-16868
转体	-16869
辖境	-16870
辞林	-16871
辽东	-16872
达州	-16873
过时	-16874
进场	-16875
连打	-16876
连线	-16877
追赠	-16878
退游	-16879
送往	-16880
那一	-16881
部件	-16882
都城	-16883
都已	-16884
里升	-16885
里士	-16886
金钟	-16887
钉钉	-16888
间隔	-16889
闹海	-16890
阿兹	-16891
降水	-16892
院的	-16893
雄性	-16894
霸凌	-16895
霹雳	-16896
餐员	-16897
饭圈	-16898
饱暖	-16899
饼里	-16900
首部	-16901
香自	-16902
驾校	-16903
驾龄	-16904
验孕	-16905
高层	-16906
高清	-16907
高潮	-16908
魏国	-16909
黄帝	-16910
黄钻	-16911
黎各	-16912
(、)	-16913
-),	-16914
-22	-16915
103	-16916
176	-16917
2.3	-16918
;2.	-16919
Mac	-16920
STA	-16921
eng	-16922
ler	-16923
orp	-16924
ref	-16925
rin	-16926
ssr	-16927
▁Ad	-16928
▁Bl	-16929
▁De	-16930
▁Jo	-16931
▁Or	-16932
▁at	-16933
▁by	-16934
▁le	-16935
▁sb	-16936
▁||	-16937
▁人生	-16938
▁去掉	-16939
▁同时	-16940
▁哪吒	-16941
▁声音	-16942
▁大爷	-16943
▁天线	-16944
▁太监	-16945
▁好心	-16946
▁小孩	-16947
▁弱水	-16948
▁我是	-16949
▁扫黄	-16950
▁拉拉	-16951
▁文字	-16952
▁星星	-16953
▁暗恋	-16954
▁有个	-16955
▁本句	-16956
▁歌手	-16957
▁电竞	-16958
▁知乎	-16959
▁老婆	-16960
▁老马	-16961
▁考研	-16962
▁色盲	-16963
▁花草	-16964
▁葬礼	-16965
▁论文	-16966
▁赤道	-16967
▁运用	-16968
▁造星	-16969
▁道士	-16970
▁遗书	-16971
▁黑人	-16972
一个我	-16973
一人饰	-16974
一年有	-16975
一条腿	-16976
一鸭游	-16977
七夕地	-16978
三年级	-16979
三弟的	-16980
上班了	-16981
上的云	-16982
下一个	-16983
下芬达	-16984
下英雄	-16985
不会写	-16986
不可导	-16987
不同时	-16988
不好了	-16989
不属于	-16990
不带枪	-16991
不带笔	-16992
不想听	-16993
不留下	-16994
不睡觉	-16995
不知死	-16996
不落地	-16997
不起床	-16998
与博主	-16999
与地球	-17000
与实际	-17001
与绑匪	-17002
与调侃	-17003
东印度	-17004
两万瓶	-17005
两辆车	-17006
丨无丨	-17007
丨草丨	-17008
个人吧	-17009
为黑色	-17010
举办了	-17011
义轻利	-17012
也要读	-17013
了一副	-17014
了一座	-17015
了一觉	-17016
了不起	-17017
了出来	-17018
了口气	-17019
二二八	-17020
于是我	-17021
于股掌	-17022
云邪神	-17023
云音乐	-17024
人体型	-17025
人口约	-17026
什么鸟	-17027
他已经	-17028
付完钱	-17029
仙之人	-17030
以为你	-17031
企业的	-17032
会员听	-17033
会感到	-17034
似乎是	-17035
但仍然	-17036
佛罗伦	-17037
你不懂	-17038
你奶奶	-17039
你的腿	-17040
你老婆	-17041
保智期	-17042
保质期	-17043
信息的	-17044
做了个	-17045
做人类	-17046
入粪坑	-17047
具半价	-17048
养成了	-17049
内容是	-17050
几条命	-17051
凭什么	-17052
出意外	-17053
出色的	-17054
分类法	-17055
刘公公	-17056
刘姥姥	-17057
则是由	-17058
别给我	-17059
制片人	-17060
刺猿了	-17061
前文的	-17062
努力或	-17063
化表达	-17064
区所属	-17065
半句话	-17066
占地盘	-17067
原句中	-17068
厨师是	-17069
及香港	-17070
反义词	-17071
反常的	-17072
反诈骗	-17073
发人送	-17074
发生过	-17075
变小后	-17076
变聪明	-17077
口一吐	-17078
只删除	-17079
可以由	-17080
可能指	-17081
台北县	-17082
台灯不	-17083
合法的	-17084
同属于	-17085
后一句	-17086
后羿射	-17087
否定的	-17088
吸引力	-17089
吹蜡烛	-17090
和平星	-17091
和搞笑	-17092
和谐音	-17093
哆啦梦	-17094
唐国强	-17095
喝高了	-17096
四大名	-17097
图啥呢	-17098
在全球	-17099
在法国	-17100
在自己	-17101
在表达	-17102
地球转	-17103
地说道	-17104
垃圾扔	-17105
处不在	-17106
夏侯惇	-17107
外交官	-17108
多指教	-17109
多洞症	-17110
失败后	-17111
女妖精	-17112
姓名是	-17113
子在川	-17114
学习或	-17115
学到老	-17116
学猫叫	-17117
孩子体	-17118
安全词	-17119
安好心	-17120
宝可梦	-17121
宣布将	-17122
害怕被	-17123
对应的	-17124
将人质	-17125
小树苗	-17126
山上流	-17127
工程的	-17128
已打烊	-17129
巴马州	-17130
带括号	-17131
干燥剂	-17132
平台的	-17133
平方呎	-17134
年之后	-17135
年大选	-17136
并加入	-17137
建制派	-17138
开始于	-17139
引申义	-17140
弱智的	-17141
当厕纸	-17142
当年的	-17143
往下流	-17144
很可爱	-17145
很成功	-17146
很舒服	-17147
德里希	-17148
心里话	-17149
快一年	-17150
快活的	-17151
快点拉	-17152
怎么蒙	-17153
思淫欲	-17154
性冷淡	-17155
性恶论	-17156
总算有	-17157
恰烂钱	-17158
悬崖边	-17159
愤怒或	-17160
成员国	-17161
我只是	-17162
我有个	-17163
我给你	-17164
我考了	-17165
我装的	-17166
我跟你	-17167
我面前	-17168
战场上	-17169
战胜了	-17170
房地产	-17171
所以对	-17172
打黄盖	-17173
抓耳挠	-17174
抱金砖	-17175
拆炸弹	-17176
拟声词	-17177
拿反了	-17178
持续到	-17179
指喜欢	-17180
指定的	-17181
指自己	-17182
挠破头	-17183
排除法	-17184
探测器	-17185
掰了一	-17186
提问者	-17187
摩洛哥	-17188
擦屁股	-17189
改编为	-17190
放假后	-17191
敬事房	-17192
敲桌子	-17193
敲碎了	-17194
斗地主	-17195
断子手	-17196
新技术	-17197
无意义	-17198
无故人	-17199
日本被	-17200
是古代	-17201
是否能	-17202
是夸张	-17203
是巧妙	-17204
是无法	-17205
是李白	-17206
是模仿	-17207
景阳冈	-17208
智商税	-17209
暗含了	-17210
暗示其	-17211
月参加	-17212
有关的	-17213
有助于	-17214
有洁癖	-17215
木偶人	-17216
本来指	-17217
本环奈	-17218
李外卖	-17219
来回爬	-17220
来强调	-17221
杨教授	-17222
柏拉图	-17223
柱间的	-17224
柴油机	-17225
核舟记	-17226
桂花树	-17227
森林木	-17228
樟脑丸	-17229
歇后语	-17230
此处把	-17231
此处指	-17232
殴尼酱	-17233
毕业了	-17234
氧化怖	-17235
求菩萨	-17236
沃尔夫	-17237
没听课	-17238
沦陷了	-17239
治好了	-17240
泡酒吧	-17241
洒自在	-17242
洗晚工	-17243
活到老	-17244
活的猫	-17245
活腻了	-17246
流浪子	-17247
浇汽油	-17248
淡而无	-17249
混乱或	-17250
滑稽感	-17251
火两重	-17252
火场中	-17253
点奶茶	-17254
焚尸炉	-17255
熟的人	-17256
父亲的	-17257
狼发情	-17258
王医生	-17259
王朝的	-17260
理论上	-17261
用现代	-17262
电一下	-17263
电击人	-17264
白骨精	-17265
的一所	-17266
的决定	-17267
的力量	-17268
的原料	-17269
的发现	-17270
的句式	-17271
的困惑	-17272
的地得	-17273
的小事	-17274
的艺术	-17275
的诗词	-17276
相对论	-17277
看师傅	-17278
睡午觉	-17279
睡觉了	-17280
短吻鳄	-17281
石灰水	-17282
砍头戏	-17283
社会摇	-17284
祖安人	-17285
称手的	-17286
笑话中	-17287
符号与	-17288
笨东西	-17289
第一种	-17290
第二张	-17291
等人在	-17292
简化成	-17293
算不算	-17294
米考试	-17295
紧迫感	-17296
繁体字	-17297
红码你	-17298
红色的	-17299
给别人	-17300
给好评	-17301
续香火	-17302
罗拉多	-17303
老铁的	-17304
考得好	-17305
而后者	-17306
而妈妈	-17307
而此处	-17308
聊天的	-17309
肉体与	-17310
肉剁碎	-17311
能让人	-17312
脑子的	-17313
脚下的	-17314
自己泡	-17315
自来熟	-17316
荒诞的	-17317
荒谬且	-17318
董事会	-17319
虎鼓瑟	-17320
蛤蟆功	-17321
袜子里	-17322
被公认	-17323
被打晕	-17324
装的是	-17325
褒姒笑	-17326
要分开	-17327
认曹操	-17328
许多人	-17329
试卷上	-17330
读起来	-17331
调侃其	-17332
调侃或	-17333
负罪感	-17334
资本摇	-17335
走程序	-17336
起不来	-17337
起夜家	-17338
蹭死者	-17339
身在福	-17340
车上有	-17341
输氧管	-17342
还是爱	-17343
这是对	-17344
送分题	-17345
送花和	-17346
遗传学	-17347
那可不	-17348
郑成功	-17349
郡太守	-17350
采棉花	-17351
里的梗	-17352
金正恩	-17353
鉴宝师	-17354
钢琴曲	-17355
铁汁萌	-17356
长城非	-17357
阳关道	-17358
限塑令	-17359
院长朝	-17360
隐藏着	-17361
霸王鸡	-17362
韭菜花	-17363
领导在	-17364
领点事	-17365
风火轮	-17366
飞得高	-17367
马克斯	-17368
马吃草	-17369
高兴的	-17370
鬼敲门	-17371
鬼进行	-17372
魁北克	-17373
黑中医	-17374
****	-17375
1919	-17376
1924	-17377
?!”“	-17378
SSBB	-17379
berg	-17380
lect	-17381
orge	-17382
▁360	-17383
▁985	-17384
▁Ind	-17385
▁ntr	-17386
▁不倒翁	-17387
▁不靠谱	-17388
▁为防止	-17389
▁借用了	-17390
▁健康码	-17391
▁充电器	-17392
▁刽子手	-17393
▁前一句	-17394
▁前面的	-17395
▁原句中	-17396
▁变色龙	-17397
▁唐国强	-17398
▁喜羊羊	-17399
▁外行人	-17400
▁夸张地	-17401
▁好气啊	-17402
▁如果我	-17403
▁孟德尔	-17404
▁小明复	-17405
▁岂可修	-17406
▁弱智吧	-17407
▁拼多多	-17408
▁暗示了	-17409
▁曹丞相	-17410
▁本句话	-17411
▁狙击手	-17412
▁皮诺曹	-17413
▁程序员	-17414
▁讽刺了	-17415
▁该句对	-17416
▁说话者	-17417
▁谐音梗	-17418
▁跌落神	-17419
▁这里先	-17420
▁逗猫棒	-17421
▁重金属	-17422
一个东西	-17423
一个苹果	-17424
一个荒诞	-17425
一只蚂蚁	-17426
一定程度	-17427
一山不容	-17428
一怒之下	-17429
一百个人	-17430
一种幽默	-17431
一身是胆	-17432
七个小矮	-17433
三六九等	-17434
三刀下去	-17435
三天可以	-17436
三星好评	-17437
三长两短	-17438
上帝死了	-17439
不会拆台	-17440
不够客观	-17441
不太自信	-17442
不如近邻	-17443
不相信神	-17444
不要朋友	-17445
不许涩涩	-17446
不遵医嘱	-17447
与太平间	-17448
专业录取	-17449
世界直到	-17450
东北方言	-17451
丢三落四	-17452
两台电视	-17453
中国大妈	-17454
中的陷阱	-17455
为什么我	-17456
举手投足	-17457
之前的坟	-17458
乌合之众	-17459
也便成了	-17460
五个虚词	-17461
交配视频	-17462
人和北方	-17463
人的划分	-17464
人类认可	-17465
今日头条	-17466
今日看点	-17467
从字面上	-17468
他人的人	-17469
他们可能	-17470
他的作品	-17471
他要的是	-17472
传达了对	-17473
作弊行为	-17474
作案手法	-17475
你不要老	-17476
你是不是	-17477
你走你的	-17478
使用这种	-17479
假装作弊	-17480
做个人吧	-17481
做梦去吧	-17482
偷订外卖	-17483
僵尸学生	-17484
儿膝下有	-17485
先别说话	-17486
光是粒子	-17487
全员恶人	-17488
八级烫伤	-17489
兮列如麻	-17490
关关雎鸠	-17491
写的论文	-17492
则暗示了	-17493
办事效率	-17494
加口就是	-17495
劣质马桶	-17496
努力吃饭	-17497
匡衡凿壁	-17498
医疗服务	-17499
医疗条件	-17500
十年树木	-17501
千吨玉米	-17502
升官发财	-17503
午时处决	-17504
半个苹果	-17505
协议协议	-17506
占总人口	-17507
卷死他们	-17508
压死骆驼	-17509
厕纸用了	-17510
去世的人	-17511
去见上帝	-17512
去领事馆	-17513
又二又次	-17514
双面卧底	-17515
反差效果	-17516
只有醒来	-17517
可乐杀精	-17518
可以消灭	-17519
可盐可甜	-17520
可能意在	-17521
同学少年	-17522
后半句话	-17523
君一席话	-17524
听力不好	-17525
听力练习	-17526
听力考试	-17527
吹弹可破	-17528
呼吸不畅	-17529
命运坎坷	-17530
和上战场	-17531
和幽默感	-17532
和猫说话	-17533
咕嘟咕嘟	-17534
哲学意味	-17535
唇枪舌战	-17536
四字词语	-17537
四维生物	-17538
回转寿司	-17539
因为我是	-17540
圈起来的	-17541
在中文中	-17542
在平均分	-17543
在弱智吧	-17544
在此期间	-17545
在这里被	-17546
坟场里升	-17547
夕阳西下	-17548
大义灭亲	-17549
大人都是	-17550
大兴机场	-17551
夸大其词	-17552
夸大数据	-17553
奈何桥是	-17554
女性化的	-17555
好好学习	-17556
字面化为	-17557
学习外语	-17558
学会拒绝	-17559
学生上课	-17560
容易受伤	-17561
对话中的	-17562
将病人的	-17563
小义大利	-17564
小心翼翼	-17565
小明面前	-17566
小马宝莉	-17567
就能看见	-17568
属于文字	-17569
工作学习	-17570
师徒四人	-17571
带有幽默	-17572
年代初期	-17573
年龄相同	-17574
幽默方式	-17575
幽默表达	-17576
广为人知	-17577
庖丁解牛	-17578
建立一个	-17579
建立汉朝	-17580
归还阎王	-17581
形容说话	-17582
形成矛盾	-17583
心动法官	-17584
忘了我吧	-17585
快乐的乐	-17586
忽冷忽热	-17587
怎么样了	-17588
性的思考	-17589
恭喜你啊	-17590
感到尴尬	-17591
感到恶心	-17592
我的底线	-17593
我的论文	-17594
截肢手术	-17595
所以小明	-17596
所以这里	-17597
才能评论	-17598
打开试卷	-17599
打破男子	-17600
抄袭字典	-17601
拉屎冲不	-17602
拉肚子的	-17603
拟人手法	-17604
拳头朝下	-17605
拾稼庄人	-17606
指出人们	-17607
指的不是	-17608
指的是人	-17609
捡到冥币	-17610
掉进水里	-17611
掌管寿命	-17612
排列组合	-17613
接头暗号	-17614
提心吊胆	-17615
搜索记录	-17616
摩西摩西	-17617
故人溶于	-17618
故意混淆	-17619
整到的光	-17620
无法实现	-17621
既表达了	-17622
日本地图	-17623
时的无奈	-17624
旺仔牛奶	-17625
明日方舟	-17626
星际时代	-17627
是个女的	-17628
是个男孩	-17629
是程序员	-17630
昴日星官	-17631
昼夜温差	-17632
显得荒谬	-17633
晚上出门	-17634
晚风吹拂	-17635
普通玩家	-17636
曲解成了	-17637
最常见的	-17638
有三个字	-17639
有模有样	-17640
未完成时	-17641
未来可妻	-17642
本来是指	-17643
本没有路	-17644
松软可口	-17645
枫叶落在	-17646
某些事情	-17647
某件事情	-17648
某种原因	-17649
某种情境	-17650
梅花香自	-17651
死后享福	-17652
死罪可免	-17653
死过人的	-17654
每天都是	-17655
没人看到	-17656
没收双腿	-17657
没穿衣服	-17658
沿海地区	-17659
法官判定	-17660
波多黎各	-17661
波罗的海	-17662
注意的是	-17663
活活憋死	-17664
活着出去	-17665
活罪难逃	-17666
流浪疯子	-17667
流浪的球	-17668
海天酱油	-17669
淡而无味	-17670
深入人心	-17671
添油加醋	-17672
潇洒自在	-17673
灵魂升华	-17674
点零花钱	-17675
煎烤老师	-17676
熟人作案	-17677
爱情让人	-17678
物理伤害	-17679
物理层面	-17680
物理概念	-17681
物理知识	-17682
犯罪事件	-17683
现在死了	-17684
生命本身	-17685
生日快乐	-17686
瘟疫公司	-17687
白居易的	-17688
白手起家	-17689
的一座桥	-17690
的不容易	-17691
的危险性	-17692
的影响力	-17693
的无厘头	-17694
的王老汉	-17695
的王警官	-17696
的荒谬性	-17697
的行为与	-17698
的调侃和	-17699
相互靠近	-17700
看似严肃	-17701
真实自我	-17702
睡了一觉	-17703
祖宗祠堂	-17704
福如东海	-17705
私密马赛	-17706
科学术语	-17707
秒的广告	-17708
空气反应	-17709
穿着衣服	-17710
穿越火线	-17711
穿越零线	-17712
突然静音	-17713
第一天就	-17714
粉丝行为	-17715
纸质电脑	-17716
练习倒立	-17717
绑架道德	-17718
绣口一吐	-17719
缜密分析	-17720
缴械不死	-17721
网上很多	-17722
老年痴呆	-17723
而后半句	-17724
而是比喻	-17725
职业玩家	-17726
职业足球	-17727
臣本布衣	-17728
自嘲自己	-17729
自己做的	-17730
自己想想	-17731
自我保护	-17732
自由主义	-17733
良心企业	-17734
草船借箭	-17735
蛔虫导游	-17736
行医资格	-17737
衣服尺码	-17738
表演一个	-17739
表现优越	-17740
被抓走了	-17741
被查出有	-17742
西游记中	-17743
要素察觉	-17744
见到流星	-17745
触地而死	-17746
警察绝对	-17747
讽刺性地	-17748
讽刺那些	-17749
设置悬念	-17750
说出来的	-17751
说话者却	-17752
谢谢理解	-17753
豪华黄钻	-17754
购物车上	-17755
走向死亡	-17756
走错方向	-17757
趣味性和	-17758
转得飞快	-17759
过得稀碎	-17760
过景阳冈	-17761
过的苹果	-17762
还没有死	-17763
这一含义	-17764
这个帅哥	-17765
这句俗语	-17766
这种东西	-17767
这种情感	-17768
这种表达	-17769
这里借用	-17770
这里却说	-17771
这里是对	-17772
这里直接	-17773
进行双关	-17774
连灭六国	-17775
连续跳级	-17776
送去托管	-17777
送的玫瑰	-17778
通常指在	-17779
通过一种	-17780
通过谐音	-17781
逻辑反转	-17782
邻居大哥	-17783
郭敬明和	-17784
重获光明	-17785
错误代码	-17786
镜中的我	-17787
闭卷考试	-17788
阳光太晒	-17789
阳关不溶	-17790
霍比特币	-17791
面对曹丕	-17792
面部肌肉	-17793
音乐的乐	-17794
顾客埋了	-17795
顾客进去	-17796
颗花生米	-17797
风流浪子	-17798
骂人的话	-17799
高中数学	-17800
高考期间	-17801
黄色预警	-17802
黑心企业	-17803
龙也要读	-17804
,2017	-17805
Saint	-17806
emoji	-17807
piano	-17808
▁1940	-17809
▁1947	-17810
▁1984	-17811
▁一日为师	-17812
▁亚洲流行	-17813
▁会不会我	-17814
▁初音未来	-17815
▁医生说我	-17816
▁天线宝宝	-17817
▁家电下乡	-17818
▁废寝忘食	-17819
▁牛头马面	-17820
▁看破真相	-17821
▁祖坟冒烟	-17822
▁老马识途	-17823
▁越王勾践	-17824
▁跌落神坛	-17825
▁这个句子	-17826
▁这是利用	-17827
▁逆转录酶	-17828
▁重义轻利	-17829
。1938	-17830
。1939	-17831
。1943	-17832
。1954	-17833
一个微小的	-17834
一层含义是	-17835
一氧化二氮	-17836
一种夸张的	-17837
一种幽默的	-17838
三弟的优点	-17839
不仅展现了	-17840
不出来的字	-17841
不到长城非	-17842
不可能表示	-17843
不知道的人	-17844
不要再打啦	-17845
个人的信息	-17846
中午吃什么	-17847
主人的任务	-17848
久别胜新婚	-17849
也无法改变	-17850
二十多岁的	-17851
二次元文化	-17852
于股掌之间	-17853
产生了一种	-17854
人体型偏瘦	-17855
什么鸟都有	-17856
从而引发了	-17857
但实际上却	-17858
但是在这里	-17859
但是这里的	-17860
但这里却说	-17861
低年级同学	-17862
住了几个妖	-17863
住了几个魔	-17864
你不懂自由	-17865
你什么意思	-17866
你别想不开	-17867
假币制造厂	-17868
傻子都知道	-17869
儿子的恋人	-17870
初音未来的	-17871
加利福尼亚	-17872
即兴肠胃炎	-17873
原子弹轰炸	-17874
原本意思是	-17875
双关的手法	-17876
双关达成了	-17877
反讽的效果	-17878
古龙的作品	-17879
句子的笑点	-17880
可以直接吃	-17881
可能带来的	-17882
可能是为了	-17883
可能暗示了	-17884
可降解塑料	-17885
否则就没有	-17886
和香蕉相似	-17887
和黑色幽默	-17888
因此得到了	-17889
因此这里的	-17890
围着地球转	-17891
坏掉的东西	-17892
垃圾不落地	-17893
夸张地表示	-17894
存了多少钱	-17895
学生的论文	-17896
完成了一半	-17897
对美国发动	-17898
寻信姿势罪	-17899
将人质击毙	-17900
小时前死亡	-17901
小明这个人	-17902
少活了一天	-17903
就住在这个	-17904
就没有伤害	-17905
展现出一种	-17906
巧妙的语言	-17907
年之前的坟	-17908
幽默与讽刺	-17909
幽默地解释	-17910
幽默的氛围	-17911
开了三个月	-17912
开通会员听	-17913
引用达芬奇	-17914
强烈的情感	-17915
形象的比喻	-17916
征服了太阳	-17917
急性肠胃炎	-17918
恐怖分子拉	-17919
想不到我是	-17920
意思是没有	-17921
成为了现实	-17922
我不做人了	-17923
我不做人啦	-17924
我跟你拼了	-17925
所以这里的	-17926
手术很成功	-17927
打断你的腿	-17928
找不到工作	-17929
拟人化手法	-17930
指的是小明	-17931
指的是没有	-17932
指的是那些	-17933
捉迷藏大赛	-17934
捡回一条命	-17935
描绘了一种	-17936
撒尿占地盘	-17937
文化的调侃	-17938
既可以指代	-17939
时髦这个词	-17940
明显的事实	-17941
明显的逻辑	-17942
星星不一定	-17943
是一句俗语	-17944
是一种讽刺	-17945
是一语双关	-17946
是什么意思	-17947
是字面意思	-17948
更好的自己	-17949
有两层含义	-17950
有趣的灵魂	-17951
本意是形容	-17952
来表达爱意	-17953
案发现场的	-17954
梦境与现实	-17955
死亡冷静期	-17956
死去的那天	-17957
每个人成绩	-17958
水资源危机	-17959
汉朝的灭亡	-17960
派出所有人	-17961
浴霸打响指	-17962
海水是咸的	-17963
深海恐惧症	-17964
火力少年王	-17965
爱上了道德	-17966
物理意义上	-17967
猫有九条命	-17968
现代社会中	-17969
现象的调侃	-17970
生活的无奈	-17971
用夸张手法	-17972
用武力逼迫	-17973
留下的痕迹	-17974
的一种俗称	-17975
的不当行为	-17976
的人在装病	-17977
的幽默手法	-17978
的意思是指	-17979
的最后一根	-17980
的物理定律	-17981
的谐音双关	-17982
福建人炒面	-17983
离婚冷静期	-17984
第一天无心	-17985
签订不平等	-17986
精通计算机	-17987
缩短日本人	-17988
网络文化中	-17989
美国在日本	-17990
而不是真的	-17991
脑子里的水	-17992
自己的礼物	-17993
自己的论文	-17994
荒诞的情节	-17995
荒谬的效果	-17996
荒谬的结论	-17997
获得了冠军	-17998
营造了一种	-17999
薛定谔的猫	-18000
让后面的人	-18001
讽刺的手法	-18002
设置了关注	-18003
请如来佛祖	-18004
读书破万卷	-18005
起来的手感	-18006
蹭死者热度	-18007
这个笑话既	-18008
通过夸张地	-18009
那可不咋滴	-18010
重金属中毒	-18011
量子力学中	-18012
长大了一岁	-18013
阳关无故人	-18014
集中注意力	-18015
雌母手中线	-18016
需要冷静期	-18017
霍比特人挥	-18018
青春的悼词	-18019
领点事来做	-18020
食人族人格	-18021
食人族厨师	-18022
鬼门关事变	-18023
鼻子会变长	-18024
Script	-18025
nigger	-18026
worsem	-18027
▁Music	-18028
▁意思是小明	-18029
▁被道德绑架	-18030
▁这句话使用	-18031
▁这句话运用	-18032
▁这是图啥呢	-18033
▁这里的做人	-18034
▁这里运用了	-18035
▁这里通过对	-18036
▁通常情况下	-18037
一山不容二虎	-18038
一整天的距离	-18039
一种英雄主义	-18040
一路斩妖除魔	-18041
上网课的孩子	-18042
不知死活的猫	-18043
两个人的儿子	-18044
二次元文化的	-18045
人在死亡之前	-18046
你能不能不要	-18047
写自己的名字	-18048
分出三六九等	-18049
刘备改种豌豆	-18050
前后逻辑矛盾	-18051
南方人和北方	-18052
占领道德高地	-18053
发人送黑发人	-18054
另一层含义是	-18055
只删除一个我	-18056
可以多活十年	-18057
可以被理解为	-18058
同时也暗示了	-18059
命运的一部分	-18060
和讽刺的意味	-18061
和讽刺的效果	-18062
唐三藏变成了	-18063
增添了趣味性	-18064
大人都是小人	-18065
夸张手法表达	-18066
妖精三刀下去	-18067
学生在课堂上	-18068
实际上并不是	-18069
客服破口大骂	-18070
带有一种轻松	-18071
并没有实际的	-18072
形成了有趣的	-18073
心理委员开导	-18074
成了无神论者	-18075
我才不要朋友	-18076
所有考生一律	-18077
批判从众心理	-18078
指的是一个人	-18079
指的是叙述者	-18080
擅长苦中作乐	-18081
故人溶于酒精	-18082
斩获评委的头	-18083
既可以理解为	-18084
日本人的名字	-18085
是没有意义的	-18086
昼夜温差大会	-18087
汗水付诸东流	-18088
特地开灯检查	-18089
电影院和宾馆	-18090
的幽默点在于	-18091
第一条被公认	-18092
给全世界一半	-18093
网络文化中的	-18094
老铁的直播间	-18095
脚踏黑白两道	-18096
英语听力练习	-18097
荒诞的幽默感	-18098
行人直呼内行	-18099
表达了一种对	-18100
表达了说话者	-18101
认曹操为义父	-18102
走一年的时间	-18103
过去未完成时	-18104
进一步加深了	-18105
进一步增强了	-18106
远亲不如近邻	-18107
连续五个虚词	-18108
迷惑监考老师	-18109
通过夸张手法	-18110
通过这种极端	-18111
题目中的陷阱	-18112
食人族吃人的	-18113
骨子里充满了	-18114
鲁滨逊漂流记	-18115
acebook	-18116
▁二元一次方程	-18117
▁亚洲流行天王	-18118
▁外行人看热闹	-18119
▁牛顿第一定律	-18120
▁用幽默的方式	-18121
▁这句话反映了	-18122
▁这句话可能在	-18123
▁这句话探讨了	-18124
▁这句话是一种	-18125
▁这句话表面上	-18126
▁这句话采用了	-18127
▁这是地狱笑话	-18128
一分干掉一千人	-18129
一旦多活了一天	-18130
不到长城非好汉	-18131
不同意你的观点	-18132
不曾起舞的日子	-18133
互联网搜索记录	-18134
仙之人兮列如麻	-18135
你不要老问别人	-18136
偷订外卖的学生	-18137
冷静一个月再飞	-18138
制造了一种荒诞	-18139
发一点客观的光	-18140
失败是成功之母	-18141
夺走了我的生命	-18142
实际上是在暗示	-18143
实际上是在讽刺	-18144
小东西水还挺多	-18145
就像海绵里的水	-18146
带着手套作案的	-18147
形成了一种荒诞	-18148
形成了幽默效果	-18149
总算有厕纸用了	-18150
成功对美国发动	-18151
我有十年脑溢血	-18152
排名第一的定律	-18153
掰了一千吨玉米	-18154
是巧妙的双关语	-18155
没人看到的时候	-18156
独特的幽默效果	-18157
玩弄于股掌之间	-18158
生死簿归还阎王	-18159
的概念联系起来	-18160
神话故事和现代	-18161
自相矛盾的逻辑	-18162
荒谬的因果关系	-18163
荒谬的逻辑推理	-18164
获得冠军的机会	-18165
营造出一种轻松	-18166
解决了交通问题	-18167
这里的幽默在于	-18168
连打起来的手感	-18169
逐渐发烂发臭的	-18170
通过夸张的方式	-18171
阿尔茨海默氏症	-18172
非线性叙事结构	-18173
面部肌肉和神经	-18174
▁吉尼斯世界纪录	-18175
▁未成年人保护法	-18176
▁杀不死你的东西	-18177
▁这句话通过对比	-18178
▁这句话通过描述	-18179
▁这是一个冷笑话	-18180
▁香港时间逢星期	-18181
从而产生幽默效果	-18182
发明了可降解塑料	-18183
夸张的方式表达对	-18184
将在明天午时处决	-18185
幽默和讽刺的手法	-18186
开通会员听完整版	-18187
形成了幽默的效果	-18188
杀死那个拾稼庄人	-18189
杀死那个石家庄人	-18190
每天都在努力吃饭	-18191
用武力逼迫无能的	-18192
由吉尼斯世界纪录	-18193
看见不干净的东西	-18194
知道自己睡了一觉	-18195
突然出现在我面前	-18196
经验丰富的王警官	-18197
给全世界一半的人	-18198
自己做的干净卫生	-18199
被金钱蒙蔽了双眼	-18200
这种表达方式通过	-18201
▁这个笑话巧妙地将	-18202
▁这句话是一个充满	-18203
压死骆驼的最后一根	-18204
属于文字双关达成了	-18205
强烈的反差和荒谬感	-18206
牛顿排名第一的定律	-18207
特地开灯检查了一遍	-18208
用幽默的方式表达了	-18209
警察绝对想不到我是	-18210
输入法打不出来的字	-18211
龙也要读古龙的作品	-18212
▁南村群童欺我老无力	-18213
▁这句话运用了双关语	-18214
一条狗跑一整天的距离	-18215
世界上的大人都是小人	-18216
每一个不曾起舞的日子	-18217
没有一片雪花是无辜的	-18218
worseminton	-18219
▁这句话通过幽默的方式	-18220
你不要老问别人自己想想	-18221
医生在远离我的边缘试探	-18222
第一条被公认的物理定律	-18223
连续五个虚词不可能表示	-18224
▁这句话是一种幽默的说法	-18225
它描述了一个看似荒谬的情境	-18226
▁Entertainment	-18227
属于文字双关达成了诙谐的效果	-18228
被治好的病人将在明天午时处决	-18229
警察绝对想不到我是带着手套作案的	-18230
7-	-18231
9。	-18232
GO	-18233
Gl	-18234
IE	-18235
PR	-18236
Tr	-18237
be	-18238
▁个	-18239
▁则	-18240
▁图	-18241
▁江	-18242
▁法	-18243
一辆	-18244
三菱	-18245
上书	-18246
上场	-18247
不与	-18248
不全	-18249
不正	-18250
不让	-18251
不设	-18252
与小	-18253
丛中	-18254
个别	-18255
中兴	-18256
主机	-18257
之役	-18258
二段	-18259
交接	-18260
交织	-18261
仁宗	-18262
优质	-18263
但又	-18264
低价	-18265
修斯	-18266
修理	-18267
停滞	-18268
先驱	-18269
全港	-18270
全食	-18271
写信	-18272
决战	-18273
出动	-18274
出境	-18275
列斯	-18276
制备	-18277
副使	-18278
割让	-18279
化验	-18280
北约	-18281
医科	-18282
十个	-18283
十几	-18284
升高	-18285
华德	-18286
华沙	-18287
单人	-18288
卜杜	-18289
占了	-18290
厄尔	-18291
厌恶	-18292
取名	-18293
取材	-18294
古屋	-18295
句丽	-18296
台铁	-18297
司仪	-18298
各位	-18299
合资	-18300
后再	-18301
和外	-18302
哈特	-18303
四军	-18304
因于	-18305
圆周	-18306
土佐	-18307
在三	-18308
地势	-18309
坍缩	-18310
塑胶	-18311
墓园	-18312
声母	-18313
大殿	-18314
夺冠	-18315
奥多	-18316
婆罗	-18317
安打	-18318
宗室	-18319
宝剑	-18320
审计	-18321
宣宗	-18322
宣扬	-18323
寄生	-18324
将对	-18325
小子	-18326
小巴	-18327
尔朱	-18328
尼茨	-18329
尽力	-18330
巡逻	-18331
工序	-18332
库容	-18333
延期	-18334
怀特	-18335
思念	-18336
悠久	-18337
感动	-18338
戴维	-18339
所为	-18340
扫描	-18341
承载	-18342
报价	-18343
报名	-18344
报案	-18345
拍戏	-18346
招商	-18347
接待	-18348
提早	-18349
摩根	-18350
改任	-18351
政司	-18352
效益	-18353
散骑	-18354
新奇	-18355
新教	-18356
旁的	-18357
旅长	-18358
无疑	-18359
日时	-18360
是新	-18361
昵称	-18362
普利	-18363
月光	-18364
有名	-18365
束缚	-18366
构想	-18367
枢密	-18368
架空	-18369
柔道	-18370
格利	-18371
棵树	-18372
楼层	-18373
正德	-18374
武士	-18375
武将	-18376
氏的	-18377
民航	-18378
汉代	-18379
泉州	-18380
洋基	-18381
游玩	-18382
漫威	-18383
玛利	-18384
现身	-18385
珠宝	-18386
珠江	-18387
班机	-18388
甚远	-18389
由来	-18390
甲壳	-18391
电荷	-18392
疑似	-18393
百老	-18394
的本	-18395
皇宫	-18396
盛行	-18397
神奈	-18398
神户	-18399
私营	-18400
篮板	-18401
粤剧	-18402
细腻	-18403
终年	-18404
维希	-18405
编成	-18406
罕见	-18407
罗伯	-18408
罗宾	-18409
考取	-18410
而下	-18411
而从	-18412
胡安	-18413
胡椒	-18414
自古	-18415
自愿	-18416
英宗	-18417
获准	-18418
菲亚	-18419
蜘蛛	-18420
被封	-18421
装修	-18422
裸体	-18423
襄阳	-18424
让其	-18425
话剧	-18426
诸塞	-18427
诺威	-18428
谥号	-18429
赞叹	-18430
起名	-18431
跳水	-18432
车门	-18433
转弯	-18434
转录	-18435
轮机	-18436
辅导	-18437
达赖	-18438
连环	-18439
迫害	-18440
逃往	-18441
造就	-18442
道中	-18443
重现	-18444
长者	-18445
阵线	-18446
阿卡	-18447
降级	-18448
马哈	-18449
高处	-18450
高桥	-18451
魔戒	-18452
0.2	-18453
001	-18454
115	-18455
330	-18456
5.5	-18457
8.5	-18458
AKB	-18459
Col	-18460
ISO	-18461
Min	-18462
alk	-18463
ank	-18464
aus	-18465
era	-18466
ere	-18467
get	-18468
ico	-18469
ise	-18470
ole	-18471
oly	-18472
ude	-18473
▁be	-18474
▁it	-18475
▁km	-18476
▁国家	-18477
▁约翰	-18478
一个小	-18479
上帝的	-18480
不允许	-18481
与游戏	-18482
为首的	-18483
主要有	-18484
也需要	-18485
了所有	-18486
亚特兰	-18487
人口为	-18488
人口有	-18489
什么事	-18490
从小就	-18491
他曾经	-18492
代牧区	-18493
以前的	-18494
众议员	-18495
伦西亚	-18496
体中文	-18497
其下辖	-18498
决赛中	-18499
创作了	-18500
创建于	-18501
到美国	-18502
化学家	-18503
占据了	-18504
却认为	-18505
参与者	-18506
另一半	-18507
史学家	-18508
因斯坦	-18509
在巴黎	-18510
奖学金	-18511
奥尔良	-18512
委员长	-18513
尼克松	-18514
尽管他	-18515
年之前	-18516
年推出	-18517
年进入	-18518
并表示	-18519
并进行	-18520
庄为邻	-18521
应用在	-18522
建造的	-18523
总统府	-18524
所在的	-18525
所罗门	-18526
报道称	-18527
提到了	-18528
改建为	-18529
教会的	-18530
方面军	-18531
本质上	-18532
现象的	-18533
男子的	-18534
百老汇	-18535
的一部	-18536
的冲突	-18537
的品牌	-18538
的实际	-18539
的必要	-18540
的技巧	-18541
的比例	-18542
的特质	-18543
的独特	-18544
的称号	-18545
的称呼	-18546
的距离	-18547
直接向	-18548
研究的	-18549
第二位	-18550
第二名	-18551
第二季	-18552
等领域	-18553
编写的	-18554
罗尼亚	-18555
美丽的	-18556
美国和	-18557
艺人的	-18558
蒋经国	-18559
表示对	-18560
被感染	-18561
被警方	-18562
规定的	-18563
诞生的	-18564
语言中	-18565
遇到的	-18566
非建制	-18567
鲶形目	-18568
1600	-18569
1909	-18570
1916	-18571
form	-18572
illa	-18573
ling	-18574
ords	-18575
raft	-18576
▁Con	-18577
▁Res	-18578
▁der	-18579
▁des	-18580
▁毕业于	-18581
主要用于	-18582
体育运动	-18583
加勒比海	-18584
可以用来	-18585
宣布解散	-18586
岛式月台	-18587
平均气温	-18588
应用程式	-18589
最古老的	-18590
正式成立	-18591
江户时代	-18592
特别是在	-18593
百科全书	-18594
的大部分	-18595
石器时代	-18596
科罗拉多	-18597
空中照片	-18598
阿拉斯加	-18599
香港大学	-18600
David	-18601
▁1988	-18602
▁1989	-18603
▁Love	-18604
▁一般来说	-18605
。1952	-18606
。1966	-18607
。1977	-18608
台北市政府	-18609
台湾总督府	-18610
弗吉尼亚州	-18611
是中国古代	-18612
rosoft	-18613
▁World	-18614
全国人大代表	-18615
▁System	-18616
科的其中一个种	-18617
职业篮球运动员	-18618
为辐鳍鱼纲鲶形目	-18619
属下的一个植物种	-18620
栖息在底中层水域	-18621
民主主义人民共和国	-18622
!》	-18623
AL	-18624
CA	-18625
CR	-18626
Eu	-18627
HE	-18628
MB	-18629
OH	-18630
SU	-18631
go	-18632
pp	-18633
▁[	-18634
▁兰	-18635
▁按	-18636
▁施	-18637
▁朱	-18638
▁蒙	-18639
一万	-18640
一首	-18641
三家	-18642
三重	-18643
下水	-18644
下诏	-18645
不对	-18646
不理	-18647
东欧	-18648
严峻	-18649
中生	-18650
临界	-18651
主修	-18652
之神	-18653
书面	-18654
二号	-18655
于一	-18656
亚瑟	-18657
人不	-18658
人选	-18659
介质	-18660
价为	-18661
会是	-18662
伦特	-18663
伴奏	-18664
低的	-18665
作客	-18666
修炼	-18667
偏左	-18668
停泊	-18669
儒学	-18670
光复	-18671
光滑	-18672
光碟	-18673
入宫	-18674
六世	-18675
共用	-18676
关门	-18677
其一	-18678
养子	-18679
分级	-18680
则将	-18681
刻有	-18682
前妻	-18683
前期	-18684
加索	-18685
博人	-18686
卡在	-18687
卫斯	-18688
历来	-18689
原属	-18690
参军	-18691
口秀	-18692
可与	-18693
右岸	-18694
吉祥	-18695
听从	-18696
周六	-18697
命中	-18698
和法	-18699
嘉定	-18700
四次	-18701
固有	-18702
国大	-18703
在女	-18704
在本	-18705
塔尼	-18706
塞拉	-18707
声名	-18708
多斯	-18709
大专	-18710
大清	-18711
大赏	-18712
天马	-18713
夫兰	-18714
头村	-18715
夺走	-18716
女真	-18717
奶酪	-18718
如是	-18719
妓女	-18720
子村	-18721
字用	-18722
学府	-18723
学时	-18724
实数	-18725
客场	-18726
容器	-18727
对流	-18728
尘埃	-18729
尽快	-18730
屈服	-18731
山下	-18732
山田	-18733
山镇	-18734
峡谷	-18735
巴里	-18736
幕后	-18737
年内	-18738
年是	-18739
广大	-18740
广阔	-18741
廉价	-18742
开后	-18743
开朗	-18744
心灵	-18745
快捷	-18746
快餐	-18747
急剧	-18748
戏曲	-18749
抗体	-18750
抽签	-18751
拍了	-18752
拥挤	-18753
搜寻	-18754
效的	-18755
教派	-18756
斯蒂	-18757
无畏	-18758
春节	-18759
是非	-18760
暹罗	-18761
曲的	-18762
有其	-18763
有过	-18764
有钱	-18765
构思	-18766
核糖	-18767
案的	-18768
楼梯	-18769
横向	-18770
横滨	-18771
武田	-18772
死神	-18773
每位	-18774
气的	-18775
洋行	-18776
活佛	-18777
涅夫	-18778
滚石	-18779
灾害	-18780
炮兵	-18781
炸毁	-18782
烈风	-18783
烧毁	-18784
热情	-18785
牡丹	-18786
猜想	-18787
现行	-18788
甲午	-18789
登山	-18790
的表	-18791
皮卡	-18792
盛产	-18793
直达	-18794
看成	-18795
真理	-18796
矮小	-18797
确切	-18798
神灵	-18799
科举	-18800
稍后	-18801
究竟	-18802
算术	-18803
索伦	-18804
约束	-18805
线与	-18806
续作	-18807
绿化	-18808
缘故	-18809
罢免	-18810
羞耻	-18811
老挝	-18812
而去	-18813
耶鲁	-18814
背面	-18815
船舶	-18816
荆州	-18817
莎拉	-18818
获颁	-18819
蔓延	-18820
藩主	-18821
蘑菇	-18822
被毁	-18823
西晋	-18824
该年	-18825
调料	-18826
贝拉	-18827
质子	-18828
赏识	-18829
起降	-18830
达斯	-18831
近乎	-18832
这块	-18833
逃走	-18834
遇上	-18835
都为	-18836
都以	-18837
门下	-18838
闪电	-18839
队在	-18840
阿勒	-18841
陪同	-18842
陶瓷	-18843
雅图	-18844
雇用	-18845
韩语	-18846
顺位	-18847
预示	-18848
颜料	-18849
首演	-18850
香味	-18851
马尼	-18852
马赫	-18853
高超	-18854
,13	-18855
,14	-18856
,15	-18857
158	-18858
164	-18859
166	-18860
20%	-18861
210	-18862
30%	-18863
90%	-18864
Ant	-18865
Web	-18866
ari	-18867
bur	-18868
erm	-18869
ism	-18870
oom	-18871
rid	-18872
▁Ed	-18873
▁Me	-18874
▁ag	-18875
▁因此	-18876
▁阿里	-18877
、18	-18878
」,「	-18879
一般为	-18880
上使用	-18881
不了了	-18882
不具备	-18883
不承认	-18884
与他的	-18885
世纪时	-18886
个月的	-18887
为核心	-18888
主要以	-18889
之后于	-18890
也逐渐	-18891
了美国	-18892
以防止	-18893
价值观	-18894
任务是	-18895
任总统	-18896
伺服器	-18897
但随后	-18898
例如在	-18899
保守党	-18900
公务员	-18901
共青团	-18902
兴趣的	-18903
内政部	-18904
军队的	-18905
决定把	-18906
北京人	-18907
十二名	-18908
单行本	-18909
原子核	-18910
去世的	-18911
反对党	-18912
变化的	-18913
可以与	-18914
可以做	-18915
可容纳	-18916
周围的	-18917
和高级	-18918
困难的	-18919
土库曼	-18920
在他们	-18921
在处理	-18922
在政治	-18923
地下铁	-18924
地马拉	-18925
复仇者	-18926
如果你	-18927
宾夕法	-18928
对中国	-18929
对他的	-18930
岁以上	-18931
工程系	-18932
工程院	-18933
巴布亚	-18934
年以前	-18935
年发行	-18936
年完成	-18937
式建筑	-18938
引入了	-18939
影响的	-18940
很好的	-18941
想要的	-18942
才可以	-18943
批评了	-18944
担任过	-18945
拥有的	-18946
接触到	-18947
改编成	-18948
数学中	-18949
数据库	-18950
最后在	-18951
有时会	-18952
来说明	-18953
椭圆形	-18954
歌曲的	-18955
热内卢	-18956
甚至连	-18957
由于在	-18958
电子的	-18959
的一员	-18960
的人们	-18961
的人有	-18962
的同学	-18963
的女性	-18964
的学校	-18965
的新闻	-18966
的湖泊	-18967
的追求	-18968
皇太后	-18969
社会学	-18970
神经病	-18971
第三名	-18972
等原因	-18973
绝对的	-18974
统一了	-18975
而是在	-18976
脱口秀	-18977
自由的	-18978
舞台上	-18979
苏联的	-18980
蔡英文	-18981
被用于	-18982
该地的	-18983
通常在	-18984
通过的	-18985
青岛市	-18986
1901	-18987
bert	-18988
work	-18989
▁实际上	-18990
▁成立于	-18991
万平方米	-18992
中位数为	-18993
亿立方米	-18994
伊利诺伊	-18995
佛罗伦萨	-18996
作业系统	-18997
使用这个	-18998
历史建筑	-18999
古典主义	-19000
图书馆的	-19001
在意大利	-19002
巴勒斯坦	-19003
常栖息在	-19004
并不一定	-19005
散骑常侍	-19006
文化中心	-19007
文学作品	-19008
是一种由	-19009
栖性鱼类	-19010
没有办法	-19011
流行文化	-19012
牛津大学	-19013
玻利维亚	-19014
白俄罗斯	-19015
类型为古	-19016
绝大部分	-19017
艺术作品	-19018
被描述为	-19019
这个过程	-19020
高尔夫球	-19021
aster	-19022
under	-19023
ution	-19024
▁1958	-19025
▁1960	-19026
▁1983	-19027
▁1986	-19028
。1932	-19029
俄罗斯总统	-19030
可能会导致	-19031
大部分地区	-19032
里约热内卢	-19033
马克思主义	-19034
▁Colle	-19035
▁Group	-19036
中央人民政府	-19037
所辖的一个村	-19038
William	-19039
下属的一座城市	-19040
属下的一个变种	-19041
))	-19042
;《	-19043
He	-19044
ME	-19045
oh	-19046
oo	-19047
ua	-19048
ym	-19049
▁反	-19050
▁同	-19051
▁欧	-19052
一举	-19053
七世	-19054
三子	-19055
三项	-19056
上传	-19057
下台	-19058
下场	-19059
下行	-19060
不公	-19061
不宜	-19062
不需	-19063
丑闻	-19064
专属	-19065
两层	-19066
两艘	-19067
中南	-19068
中路	-19069
义勇	-19070
之位	-19071
之首	-19072
九十	-19073
也好	-19074
书信	-19075
买票	-19076
乳糖	-19077
二元	-19078
介面	-19079
他很	-19080
代之	-19081
众所	-19082
会使	-19083
传授	-19084
低温	-19085
体会	-19086
作法	-19087
使徒	-19088
便在	-19089
保定	-19090
全军	-19091
全权	-19092
内核	-19093
冒犯	-19094
冠以	-19095
凯瑟	-19096
出使	-19097
分拆	-19098
列克	-19099
则可	-19100
初次	-19101
删减	-19102
到处	-19103
勇者	-19104
北纬	-19105
十余	-19106
十足	-19107
卓越	-19108
南美	-19109
南道	-19110
博得	-19111
变速	-19112
右翼	-19113
叶片	-19114
名和	-19115
后备	-19116
吴起	-19117
呼和	-19118
售出	-19119
商圈	-19120
图上	-19121
图斯	-19122
在天	-19123
在开	-19124
地对	-19125
地表	-19126
堂的	-19127
多以	-19128
多变	-19129
大体	-19130
大屿	-19131
天性	-19132
失业	-19133
奇异	-19134
奇特	-19135
学中	-19136
守卫	-19137
宋代	-19138
宗旨	-19139
宝石	-19140
对付	-19141
小吃	-19142
小贩	-19143
尔本	-19144
山南	-19145
山村	-19146
巨型	-19147
巴利	-19148
帖木	-19149
带回	-19150
带电	-19151
常人	-19152
庆典	-19153
康复	-19154
归为	-19155
征收	-19156
思地	-19157
总数	-19158
悄悄	-19159
战线	-19160
户部	-19161
手势	-19162
投掷	-19163
抚养	-19164
披露	-19165
拉开	-19166
换成	-19167
摩纳	-19168
改以	-19169
敌方	-19170
新浪	-19171
日食	-19172
时事	-19173
月后	-19174
有多	-19175
有序	-19176
有用	-19177
有约	-19178
杀伤	-19179
杯的	-19180
树皮	-19181
格伦	-19182
步行	-19183
水泥	-19184
汉书	-19185
沙咀	-19186
沙特	-19187
河上	-19188
河和	-19189
波的	-19190
浦东	-19191
深处	-19192
混血	-19193
游说	-19194
演变	-19195
火炮	-19196
火锅	-19197
烟草	-19198
焊接	-19199
片的	-19200
瓦斯	-19201
生子	-19202
田村	-19203
电讯	-19204
百人	-19205
百合	-19206
的副	-19207
的双	-19208
直译	-19209
相识	-19210
碰到	-19211
空降	-19212
立花	-19213
站是	-19214
站点	-19215
管弦	-19216
约占	-19217
纵向	-19218
网易	-19219
美式	-19220
而将	-19221
腹部	-19222
莱比	-19223
莱特	-19224
蒂斯	-19225
薪资	-19226
行省	-19227
表彰	-19228
被罚	-19229
西德	-19230
触碰	-19231
评判	-19232
词根	-19233
该岛	-19234
误食	-19235
越高	-19236
跳跃	-19237
车票	-19238
转运	-19239
辨别	-19240
迁入	-19241
迈阿	-19242
还击	-19243
这款	-19244
连胜	-19245
通的	-19246
遮挡	-19247
邪恶	-19248
重用	-19249
金马	-19250
门口	-19251
霍夫	-19252
颁授	-19253
预留	-19254
题为	-19255
骄傲	-19256
骑师	-19257
高价	-19258
麻雀	-19259
鼓掌	-19260
1.7	-19261
116	-19262
168	-19263
2.2	-19264
2.7	-19265
230	-19266
6.5	-19267
:15	-19268
IBM	-19269
KBS	-19270
Ser	-19271
_15	-19272
asp	-19273
ora	-19274
rol	-19275
tan	-19276
vel	-19277
▁Le	-19278
▁he	-19279
▁他在	-19280
▁其后	-19281
▁有一	-19282
▁植物	-19283
▁西方	-19284
、12	-19285
一致的	-19286
万港元	-19287
不容易	-19288
不断的	-19289
不知情	-19290
与商业	-19291
中学校	-19292
为主题	-19293
为纪念	-19294
之战中	-19295
也同时	-19296
了一场	-19297
事物的	-19298
亚马逊	-19299
他现在	-19300
以后的	-19301
会造成	-19302
其中以	-19303
减少了	-19304
则需要	-19305
创立了	-19306
剧中的	-19307
十六名	-19308
十四名	-19309
南京市	-19310
卡斯特	-19311
参谋部	-19312
发源于	-19313
发电机	-19314
只不过	-19315
可以对	-19316
可靠性	-19317
司令官	-19318
同样的	-19319
后援会	-19320
向西北	-19321
在里面	-19322
大学和	-19323
大学士	-19324
安德烈	-19325
小时内	-19326
就会在	-19327
层面的	-19328
工人的	-19329
布莱恩	-19330
年出版	-19331
年夏天	-19332
年建成	-19333
并设有	-19334
幸存者	-19335
幼稚园	-19336
座的一	-19337
弗拉基	-19338
形象的	-19339
得贡士	-19340
必须在	-19341
意识的	-19342
或个人	-19343
按察使	-19344
推翻了	-19345
提供给	-19346
文言文	-19347
斯塔夫	-19348
是使用	-19349
是来自	-19350
是现代	-19351
是目前	-19352
最终被	-19353
有一天	-19354
有效地	-19355
架飞机	-19356
每年的	-19357
水平的	-19358
汉诺威	-19359
特别的	-19360
特色的	-19361
玛格丽	-19362
现今的	-19363
理事长	-19364
由中国	-19365
由日本	-19366
的一段	-19367
的了解	-19368
的动机	-19369
的喜爱	-19370
的小型	-19371
的来源	-19372
的母亲	-19373
的浪漫	-19374
的物品	-19375
的现场	-19376
的生产	-19377
的目标	-19378
的符号	-19379
的组合	-19380
禾本科	-19381
第一轮	-19382
第三方	-19383
第二任	-19384
第四名	-19385
等海域	-19386
米特里	-19387
经纪人	-19388
而被捕	-19389
自己与	-19390
自然界	-19391
自由党	-19392
自称为	-19393
英联邦	-19394
表示他	-19395
记录了	-19396
负责任	-19397
通讯社	-19398
金像奖	-19399
钢琴家	-19400
铁道部	-19401
问题时	-19402
面对着	-19403
高中的	-19404
1907	-19405
Type	-19406
echn	-19407
ford	-19408
udio	-19409
▁And	-19410
▁Car	-19411
▁Rec	-19412
▁pro	-19413
▁总面积	-19414
一般来说	-19415
不存在的	-19416
二次大战	-19417
亚洲电视	-19418
他的儿子	-19419
健康状况	-19420
出了一个	-19421
区的一个	-19422
参赛资格	-19423
又被称为	-19424
发现他的	-19425
合作伙伴	-19426
因此没有	-19427
国防部长	-19428
官方网站	-19429
并不代表	-19430
强烈反对	-19431
总统选举	-19432
意大利人	-19433
成为中国	-19434
政治委员	-19435
是法国上	-19436
普林斯顿	-19437
最终还是	-19438
有趣的是	-19439
未能成功	-19440
此外还有	-19441
治疗方法	-19442
的一部份	-19443
范围内的	-19444
觉得自己	-19445
越来越多	-19446
铁路公司	-19447
领衔主演	-19448
飓风中心	-19449
(2010	-19450
,2016	-19451
5,000	-19452
:""),	-19453
Super	-19454
itter	-19455
ricon	-19456
||0||	-19457
▁1948	-19458
。1933	-19459
。1970	-19460
。1972	-19461
加泰罗尼亚	-19462
新疆维吾尔	-19463
是一位美国	-19464
海拔高度为	-19465
目的是为了	-19466
座的一颗恒星	-19467
登进士第二甲	-19468
中华人民共和国政府	-19469
批全国重点文物保护单位	-19470
EM	-19471
GA	-19472
Mr	-19473
NC	-19474
OL	-19475
OP	-19476
Or	-19477
SC	-19478
TF	-19479
VF	-19480
_5	-19481
li	-19482
▁Q	-19483
▁–	-19484
▁修	-19485
▁利	-19486
▁四	-19487
▁撒	-19488
▁永	-19489
▁猫	-19490
▁福	-19491
▁谢	-19492
』,	-19493
一夫	-19494
一眼	-19495
万名	-19496
上涨	-19497
下设	-19498
不休	-19499
不易	-19500
不清	-19501
与原	-19502
与西	-19503
与陈	-19504
中为	-19505
中子	-19506
临近	-19507
为王	-19508
举动	-19509
也想	-19510
书上	-19511
买的	-19512
五代	-19513
亚太	-19514
交错	-19515
产权	-19516
人名	-19517
仅在	-19518
会与	-19519
会由	-19520
住所	-19521
体弱	-19522
作赛	-19523
侍从	-19524
供给	-19525
傻瓜	-19526
先发	-19527
全力	-19528
全民	-19529
全美	-19530
八强	-19531
公学	-19532
关头	-19533
养殖	-19534
冗余	-19535
写法	-19536
军衔	-19537
凡人	-19538
凯特	-19539
到后	-19540
到那	-19541
劝告	-19542
加里	-19543
勤奋	-19544
化妆	-19545
医药	-19546
升至	-19547
午夜	-19548
卖了	-19549
南华	-19550
南县	-19551
南开	-19552
厂房	-19553
压倒	-19554
参政	-19555
双子	-19556
叛国	-19557
古斯	-19558
只占	-19559
只得	-19560
可行	-19561
台语	-19562
右侧	-19563
各方	-19564
合称	-19565
合计	-19566
吉利	-19567
吉田	-19568
同乡	-19569
名额	-19570
后为	-19571
后人	-19572
君子	-19573
吞并	-19574
员外	-19575
和小	-19576
和的	-19577
图尔	-19578
土星	-19579
增压	-19580
大明	-19581
太常	-19582
奥特	-19583
如其	-19584
始发	-19585
婚后	-19586
字在	-19587
安条	-19588
宝座	-19589
宣战	-19590
将由	-19591
尊敬	-19592
小偷	-19593
少见	-19594
山城	-19595
山是	-19596
市立	-19597
年再	-19598
年秋	-19599
并曾	-19600
开采	-19601
式是	-19602
引致	-19603
强暴	-19604
得失	-19605
德雷	-19606
必修	-19607
急于	-19608
怪异	-19609
总长	-19610
恶化	-19611
惨重	-19612
懦弱	-19613
抓获	-19614
折磨	-19615
抵触	-19616
拉里	-19617
拥抱	-19618
拥立	-19619
拨款	-19620
据此	-19621
控告	-19622
掩护	-19623
撤出	-19624
播音	-19625
故乡	-19626
文坛	-19627
施压	-19628
日照	-19629
旧称	-19630
时为	-19631
星河	-19632
普朗	-19633
更早	-19634
朗德	-19635
朝天	-19636
期为	-19637
杀戮	-19638
李云	-19639
来使	-19640
来宾	-19641
杰明	-19642
松江	-19643
林根	-19644
树立	-19645
梅克	-19646
检阅	-19647
概括	-19648
欧亚	-19649
正与	-19650
此剧	-19651
残留	-19652
残骸	-19653
段落	-19654
毒性	-19655
水和	-19656
江湖	-19657
沮丧	-19658
注定	-19659
泰坦	-19660
泰山	-19661
流失	-19662
海地	-19663
涂装	-19664
淫秽	-19665
深层	-19666
清初	-19667
清河	-19668
港湾	-19669
激励	-19670
火化	-19671
照明	-19672
爪哇	-19673
片头	-19674
特克	-19675
特纳	-19676
狭窄	-19677
猛烈	-19678
珍惜	-19679
球的	-19680
甜品	-19681
病例	-19682
病死	-19683
的圣	-19684
的红	-19685
直通	-19686
短短	-19687
神祇	-19688
祥和	-19689
秒钟	-19690
租用	-19691
穿的	-19692
立面	-19693
站为	-19694
站前	-19695
笔记	-19696
笔钱	-19697
签下	-19698
红白	-19699
红线	-19700
约合	-19701
级数	-19702
继母	-19703
编修	-19704
罢了	-19705
美观	-19706
美金	-19707
背部	-19708
腾堡	-19709
自传	-19710
自觉	-19711
致电	-19712
舍尔	-19713
船长	-19714
船队	-19715
若望	-19716
英法	-19717
英美	-19718
荣耀	-19719
菊科	-19720
萨姆	-19721
蒂安	-19722
行程	-19723
裂变	-19724
警惕	-19725
警示	-19726
讲究	-19727
论证	-19728
该镇	-19729
读作	-19730
贵妃	-19731
赞同	-19732
赶紧	-19733
跟着	-19734
身处	-19735
车款	-19736
转的	-19737
辅音	-19738
还未	-19739
这支	-19740
迪尔	-19741
造假	-19742
部将	-19743
金奖	-19744
铁门	-19745
长相	-19746
阿姨	-19747
阿肯	-19748
陈列	-19749
除外	-19750
雇员	-19751
零件	-19752
风气	-19753
风波	-19754
马匹	-19755
马萨	-19756
驳回	-19757
黄浦	-19758
黑客	-19759
齐亚	-19760
0.4	-19761
1.4	-19762
113	-19763
13.	-19764
135	-19765
208	-19766
[...]
